#ifndef DATA_H
#define DATA_H

const uint16_t app_bias_host_stencil_data_0[] __attribute__((section(".app_bias_host_stencil_data_0"))) = { 
0x4045, 0xbee8, 0x3fa6, 0x4019, 0x3fa1, 0x3f63, 0x4026, 0x3fd2, 0xab94, 0x3f93, 0x2969, 0xbeed, 0x3e02, 0x4016, 0xbee9, 0x4010
};
const unsigned int app_bias_host_stencil_data_0_size =  16;
const uint16_t app_input_host_stencil_data_0[] __attribute__((section(".app_input_host_stencil_data_0"))) = { 
0x000, 0x000, 0x000, 0x000, 0x000, 0x000, 0x000, 0x000, 0x000, 0x000, 0x000, 0x000, 0x000, 0x000, 0x000, 0x000, 0x000, 0x000, 0x000, 0x000, 0x000, 0x000, 0x000, 0x000, 0x000, 0x000, 0x000, 0x000, 0x000, 0x000, 0x000, 0x000, 0x000, 0x000, 0x000, 0x000, 0x000, 0x000, 0x000, 0x000, 0x000, 0x000, 0x000, 0x000, 0x000, 0x000, 0x000, 0x000, 0x000, 0x000, 0x000, 0x000, 0x000, 0x000, 0x000, 0x000, 0x000, 0x000, 0x000, 0x000, 0x000, 0x000, 0x000, 0x000, 0x000, 0x000, 0x000, 0x000, 0x000, 0x000, 0x000, 0x000, 0x000, 0x000, 0x000, 0x000, 0x000, 0x000, 0x000, 0x000, 0x000, 0x000, 0x000, 0x000, 0x000, 0x000, 0x000, 0x000, 0x000, 0x000, 0x000, 0x000, 0x000, 0x000, 0x000, 0x000, 0x000, 0x000, 0x000, 0x000, 0x000, 0x000, 0x3df9, 0x3de9, 0x3df9, 0x3e05, 0x3e05, 0x3e0d, 0x3e0d, 0x3e0d, 0x3df9, 0x3e05, 0x3e0d, 0x3e05, 0x3e0d, 0x3e15, 0x3e15, 0x3e05, 0x3e0d, 0x3e0d, 0x3e15, 0x3e15, 0x3e15, 0x3e0d, 0x3e15, 0x3e0d, 0x3e15, 0x3e1d, 0x3e1d, 0x3e15, 0x3e15, 0x3e1d, 0x3e1d, 0x3e15, 0x3e15, 0x3e25, 0x3e1d, 0x3e25, 0x3e1d, 0x3e25, 0x3e2d, 0x3e25, 0x3e2d, 0x3e25, 0x3e1d, 0x3e15, 0x3e1d, 0x3e25, 0x3e25, 0x3e25, 0x3e25, 0x3e25, 0x3e2d, 0x3e25, 0x3e25, 0xbde9, 0xbf3c, 0xbf36, 0xbf28, 0xbec3, 0xbf28, 0xbf50, 0xbf30, 0xbf16, 0xbf42, 0xbf42, 0xbf3e, 0xbf3e, 0xbf38, 0xbf3a, 0xbefb, 0x3e05, 0x3e25, 0x3e2d, 0x3e2d, 0x3e2d, 0x3e25, 0x3e25, 0x3e2d, 0x3e35, 0x3e2d, 0x3e2d, 0x3e35, 0x3e2d, 0x3e25, 0x3e1d, 0x3e0d, 0x3e0d, 0x3e25, 0x3e2d, 0x3e2d, 0x3e25, 0x3e25, 0x3e25, 0x3e25, 0x3e25, 0x3e25, 0x3e25, 0x000, 0x000, 0x000, 0x000, 0x000, 0x3e05, 0x3e05, 0x3e05, 0x3e05, 0x3e0d, 0x3e05, 0x3e0d, 0x3e0d, 0x3df9, 0x3df9, 0x3df9, 0x3e0d, 0x3e0d, 0x3e15, 0x3e05, 0x3e05, 0x3e15, 0x3e15, 0x3e1d, 0x3e15, 0x3e1d, 0x3e15, 0x3e15, 0x3e0d, 0x3e15, 0x3e1d, 0x3e1d, 0x3e0d, 0x3e15, 0x3e1d, 0x3e1d, 0x3e1d, 0x3e1d, 0x3e1d, 0x3e25, 0x3e25, 0x3e35, 0x3e2d, 0x3e1d, 0x3e25, 0x3e25, 0x3e1d, 0x3e1d, 0x3e25, 0x3e1d, 0x3e1d, 0x3e25, 0x3e25, 0x3e25, 0x3e2d, 0x3e1d, 0x3e1d, 0x3e1d, 0xbe87, 0xbf44, 0xbf32, 0xbf10, 0xbebb, 0xbf3c, 0xbf4a, 0xbf14, 0xbf18, 0xbf1a, 0xbf08, 0xbf3a, 0xbf40, 0xbf48, 0xbf3e, 0xbe7d, 0x3e25, 0x3e1d, 0x3e2d, 0x3e25, 0x3e35, 0x3e2d, 0x3e2d, 0x3e2d, 0x3e35, 0x3e2d, 0x3e2d, 0x3e2d, 0x3e35, 0x3e2d, 0x3e2d, 0x3e1d, 0x3e15, 0x3e25, 0x3e1d, 0x3e1d, 0x3e2d, 0x3e25, 0x3e1d, 0x3e2d, 0x3e2d, 0x3e25, 0x3e25, 0x000, 0x000, 0x000, 0x000, 0x000, 0x3e05, 0x3df9, 0x3e05, 0x3e05, 0x3e0d, 0x3df9, 0x3e05, 0x3e0d, 0x3e05, 0x3e0d, 0x3e05, 0x3e0d, 0x3e0d, 0x3e0d, 0x3df9, 0x3e05, 0x3e15, 0x3e15, 0x3e15, 0x3e15, 0x3e15, 0x3e15, 0x3e15, 0x3e0d, 0x3e15, 0x3e15, 0x3e1d, 0x3e15, 0x3e0d, 0x3e1d, 0x3e15, 0x3e15, 0x3e1d, 0x3e1d, 0x3e25, 0x3e15, 0x3e25, 0x3e25, 0x3e25, 0x3e25, 0x3e25, 0x3e25, 0x3e25, 0x3e2d, 0x3e2d, 0x3e25, 0x3e25, 0x3e25, 0x3e25, 0x3e25, 0x3e1d, 0x3e2d, 0x3e05, 0xbeeb, 0xbf44, 0xbf2e, 0xbee7, 0xbed7, 0xbf4a, 0xbf44, 0xbef3, 0xbea3, 0xbe83, 0xbeb7, 0xbf2a, 0xbf4e, 0xbf4e, 0xbf30, 0xbce1, 0x3e25, 0x3e1d, 0x3e25, 0x3e2d, 0x3e35, 0x3e2d, 0x3e25, 0x3e2d, 0x3e2d, 0x3e2d, 0x3e25, 0x3e25, 0x3e2d, 0x3e1d, 0x3e2d, 0x3e2d, 0x3e2d, 0x3e2d, 0x3e25, 0x3e1d, 0x3e1d, 0x3e25, 0x3e1d, 0x3e2d, 0x3e25, 0x3e1d, 0x3e1d, 0x000, 0x000, 0x000, 0x000, 0x000, 0x3df9, 0x3e05, 0x3e0d, 0x3e0d, 0x3e0d, 0x3e0d, 0x3e05, 0x3e0d, 0x3e15, 0x3e15, 0x3e15, 0x3e15, 0x3e0d, 0x3e0d, 0x3e05, 0x3e0d, 0x3e15, 0x3e15, 0x3e1d, 0x3e15, 0x3e1d, 0x3e15, 0x3e15, 0x3e15, 0x3e0d, 0x3e15, 0x3e1d, 0x3e1d, 0x3e15, 0x3e1d, 0x3e1d, 0x3e15, 0x3e1d, 0x3e1d, 0x3e25, 0x3e25, 0x3e25, 0x3e25, 0x3e2d, 0x3e2d, 0x3e2d, 0x3e2d, 0x3e2d, 0x3e2d, 0x3e2d, 0x3e2d, 0x3e2d, 0x3e25, 0x3e25, 0x3e2d, 0x3e2d, 0x3e2d, 0x3d99, 0xbf1a, 0xbf3c, 0xbf24, 0xbe9f, 0xbf0a, 0xbf4a, 0xbf20, 0xbea7, 0xbd71, 0xbe25, 0xbeef, 0xbf36, 0xbf52, 0xbf4c, 0xbf0e, 0x3df9, 0x3e35, 0x3e2d, 0x3e35, 0x3e2d, 0x3e2d, 0x3e2d, 0x3e2d, 0x3e2d, 0x3e2d, 0x3e2d, 0x3e2d, 0x3e35, 0x3e35, 0x3e2d, 0x3e25, 0x3e2d, 0x3e2d, 0x3e2d, 0x3e2d, 0x3e25, 0x3e2d, 0x3e25, 0x3e25, 0x3e2d, 0x3e2d, 0x3e25, 0x3e25, 0x000, 0x000, 0x000, 0x000, 0x000, 0x3e05, 0x3df9, 0x3e05, 0x3e0d, 0x3e0d, 0x3e0d, 0x3e05, 0x3e05, 0x3e0d, 0x3e0d, 0x3e15, 0x3e15, 0x3e15, 0x3e0d, 0x3e0d, 0x3e0d, 0x3e15, 0x3e15, 0x3e15, 0x3e1d, 0x3e1d, 0x3e15, 0x3e15, 0x3e0d, 0x3e1d, 0x3e0d, 0x3e15, 0x3e25, 0x3e1d, 0x3e15, 0x3e1d, 0x3e1d, 0x3e25, 0x3e25, 0x3e25, 0x3e25, 0x3e25, 0x3e25, 0x3e25, 0x3e2d, 0x3e2d, 0x3e2d, 0x3e2d, 0x3e25, 0x3e2d, 0x3e25, 0x3e0d, 0x3e25, 0x3e1d, 0x3e2d, 0x3e2d, 0x3e2d, 0xbd89, 0xbf34, 0xbf36, 0xbf0a, 0xbe3d, 0xbf28, 0xbf28, 0xbed7, 0xbe8f, 0xbd99, 0xbe97, 0xbf16, 0xbf4e, 0xbf54, 0xbf4a, 0xbea3, 0x3e35, 0x3e35, 0x3e35, 0x3e35, 0x3e2d, 0x3e2d, 0x3e2d, 0x3e35, 0x3e35, 0x3e35, 0x3e35, 0x3e35, 0x3e35, 0x3e35, 0x3e35, 0x3e2d, 0x3e2d, 0x3e35, 0x3e35, 0x3e2d, 0x3e35, 0x3e35, 0x3e2d, 0x3e35, 0x3e2d, 0x3e2d, 0x3e25, 0x3e25, 0x000, 0x000, 0x000, 0x000, 0x000, 0x3e0d, 0x3e05, 0x3e0d, 0x3e0d, 0x3e05, 0x3e0d, 0x3e0d, 0x3e15, 0x3e05, 0x3e05, 0x3e0d, 0x3e15, 0x3e15, 0x3e15, 0x3e15, 0x3e0d, 0x3e0d, 0x3e15, 0x3e05, 0x3e15, 0x3e15, 0x3e1d, 0x3e1d, 0x3e15, 0x3e25, 0x3e1d, 0x3e2d, 0x3e1d, 0x3e1d, 0x3e1d, 0x3e1d, 0x3e1d, 0x3e1d, 0x3e2d, 0x3e25, 0x3e25, 0x3e2d, 0x3e25, 0x3e25, 0x3e25, 0x3e1d, 0x3e25, 0x3e1d, 0x3e1d, 0x3e2d, 0x3ca1, 0xbe8b, 0x3e1d, 0x3e2d, 0x3e35, 0x3e2d, 0x3e25, 0xbe7d, 0xbf40, 0xbf30, 0xbedb, 0xbe7d, 0xbf32, 0xbf0c, 0xbee3, 0xbeb3, 0xbea7, 0xbed7, 0xbf1e, 0xbf50, 0xbf54, 0xbf3e, 0xbd99, 0x3e25, 0x3e25, 0x3e2d, 0x3e35, 0x3e35, 0x3e35, 0x3e35, 0x3e2d, 0x3e35, 0x3e35, 0x3e35, 0x3e2d, 0x3e35, 0x3e35, 0x3e35, 0x3e2d, 0x3e25, 0x3e2d, 0x3e25, 0x3e25, 0x3e2d, 0x3e35, 0x3e25, 0x3e2d, 0x3e25, 0x3e25, 0x3e2d, 0x3e2d, 0x000, 0x000, 0x000, 0x000, 0x000, 0x3e0d, 0x3e0d, 0x3e05, 0x3e0d, 0x3e05, 0x3e0d, 0x3e0d, 0x3e0d, 0x3e0d, 0x3e0d, 0x3e15, 0x3e15, 0x3e1d, 0x3e15, 0x3e15, 0x3e15, 0x3e15, 0x3e15, 0x3e0d, 0x3e15, 0x3e1d, 0x3e25, 0x3e15, 0x3e1d, 0x3e25, 0x3e1d, 0x3e2d, 0x3e1d, 0x3e25, 0x3e1d, 0x3e1d, 0x3e1d, 0x3e1d, 0x3e25, 0x3e1d, 0x3e25, 0x3e2d, 0x3e2d, 0x3e1d, 0x3e25, 0x3e1d, 0x3e2d, 0x3e25, 0x3e1d, 0x3e25, 0xbeaf, 0xbf10, 0x3e05, 0x3e2d, 0x3e2d, 0x3e35, 0x3e15, 0xbed7, 0xbf4c, 0xbf2c, 0xbe93, 0xbecf, 0xbf30, 0xbf28, 0xbf18, 0xbec3, 0xbed3, 0xbf18, 0xbf38, 0xbf50, 0xbf56, 0xbf20, 0x3db9, 0x3e2d, 0x3e2d, 0x3e2d, 0x3e35, 0x3e35, 0x3e35, 0x3e35, 0x3e35, 0x3e3d, 0x3e3d, 0x3e25, 0x3e2d, 0x3e2d, 0x3e35, 0x3e35, 0x3e2d, 0x3e35, 0x3e2d, 0x3e2d, 0x3e2d, 0x3e25, 0x3e25, 0x3e25, 0x3e25, 0x3e25, 0x3e25, 0x3e35, 0x3e2d, 0x000, 0x000, 0x000, 0x000, 0x000, 0x3e05, 0x3e05, 0x3e05, 0x3e0d, 0x3e05, 0x3e05, 0x3e05, 0x3e0d, 0x3e15, 0x3e0d, 0x3e15, 0x3e15, 0x3e15, 0x3e15, 0x3e15, 0x3e0d, 0x3e15, 0x3e15, 0x3e15, 0x3e15, 0x3e1d, 0x3e25, 0x3e15, 0x3e1d, 0x3e1d, 0x3e1d, 0x3e25, 0x3e1d, 0x3e25, 0x3e25, 0x3e15, 0x3e15, 0x3e0d, 0x3e15, 0x3e15, 0x3e1d, 0x3e35, 0x3e1d, 0x3e1d, 0x3e1d, 0x3e25, 0x3e25, 0x3e25, 0x3e25, 0x3d99, 0xbf22, 0xbf12, 0x3e05, 0x3e25, 0x3e25, 0x3e2d, 0x3d71, 0xbf18, 0xbf4e, 0xbf14, 0xbe65, 0xbf14, 0xbf28, 0xbf2e, 0xbf28, 0xbed3, 0xbef7, 0xbf3e, 0xbf48, 0xbf52, 0xbf54, 0xbed3, 0x3e35, 0x3e35, 0x3e35, 0x3e35, 0x3e35, 0x3e35, 0x3e2d, 0x3e2d, 0x3e2d, 0x3e2d, 0x3e35, 0x3e2d, 0x3e2d, 0x3e2d, 0x3e35, 0x3e35, 0x3e35, 0x3e3d, 0x3e35, 0x3e35, 0x3e2d, 0x3e2d, 0x3e2d, 0x3e2d, 0x3e2d, 0x3e25, 0x3e25, 0x3e35, 0x3e2d, 0x000, 0x000, 0x000, 0x000, 0x000, 0x3e0d, 0x3e15, 0x3e0d, 0x3e0d, 0x3e15, 0x3e0d, 0x3e0d, 0x3e05, 0x3e0d, 0x3e15, 0x3e15, 0x3e15, 0x3e15, 0x3e15, 0x3e15, 0x3e15, 0x3e1d, 0x3e0d, 0x3e15, 0x3e15, 0x3e0d, 0x3e15, 0x3e1d, 0x3e1d, 0x3e1d, 0x3e1d, 0x3e1d, 0x3e25, 0x3e25, 0x3e2d, 0x3e1d, 0x3e0d, 0x3e1d, 0x3e15, 0x3e1d, 0x3e2d, 0x3e25, 0x3e15, 0x3e1d, 0x3e1d, 0x3e25, 0x3e2d, 0x3e25, 0x3e2d, 0xbe25, 0xbf42, 0xbf04, 0x3e15, 0x3e2d, 0x3e25, 0x3e25, 0xbd71, 0xbf34, 0xbf4a, 0xbee3, 0xbe55, 0xbf2c, 0xbf24, 0xbf30, 0xbf2c, 0xbed7, 0xbf22, 0xbf50, 0xbf4c, 0xbf4e, 0xbf3a, 0xbda9, 0x3e35, 0x3e35, 0x3e35, 0x3e35, 0x3e35, 0x3e35, 0x3e2d, 0x3e2d, 0x3e35, 0x3e35, 0x3e35, 0x3e35, 0x3e2d, 0x3e35, 0x3e35, 0x3e35, 0x3e2d, 0x3e35, 0x3e2d, 0x3e2d, 0x3e35, 0x3e2d, 0x3e35, 0x3e2d, 0x3e25, 0x3e25, 0x3e2d, 0x3e35, 0x3e2d, 0x000, 0x000, 0x000, 0x000, 0x000, 0x3e0d, 0x3e1d, 0x3e0d, 0x3e0d, 0x3e15, 0x3e0d, 0x3e0d, 0x3e0d, 0x3e0d, 0x3e15, 0x3e1d, 0x3e0d, 0x3e0d, 0x3e0d, 0x3e15, 0x3e0d, 0x3e0d, 0x3e15, 0x3e1d, 0x3e1d, 0x3e1d, 0x3e0d, 0x3e1d, 0x3e2d, 0x3e1d, 0x3e15, 0x3e1d, 0x3e1d, 0x3e25, 0x3e25, 0x3e25, 0x3e15, 0x3e15, 0x3e15, 0x3e25, 0x3e2d, 0x3e25, 0x3e1d, 0x3e25, 0x3e25, 0x3e25, 0x3e2d, 0x3e2d, 0x3e0d, 0xbef3, 0xbf4c, 0xbebf, 0x3e2d, 0x3e2d, 0x3e2d, 0x3e1d, 0xbe7d, 0xbf4a, 0xbf30, 0xbeab, 0xbeaf, 0xbf2e, 0xbf26, 0xbf30, 0xbf2e, 0xbeeb, 0xbf40, 0xbf52, 0xbf48, 0xbf48, 0xbf10, 0x3da9, 0x3e35, 0x3e35, 0x3e35, 0x3e2d, 0x3e35, 0x3e35, 0x3e35, 0x3e35, 0x3e35, 0x3e35, 0x3e35, 0x3e35, 0x3e2d, 0x3e35, 0x3e35, 0x3e35, 0x3e2d, 0x3e2d, 0x3e35, 0x3e25, 0x3e35, 0x3e2d, 0x3e2d, 0x3e2d, 0x3e2d, 0x3e2d, 0x3e2d, 0x3e2d, 0x3e2d, 0x000, 0x000, 0x000, 0x000, 0x000, 0x3e15, 0x3e0d, 0x3e05, 0x3e0d, 0x3e0d, 0x3e15, 0x3e0d, 0x3e15, 0x3e0d, 0x3e0d, 0x3e15, 0x3e1d, 0x3e15, 0x3e15, 0x3e15, 0x3e0d, 0x3e0d, 0x3e15, 0x3e1d, 0x3e1d, 0x3e15, 0x3e1d, 0x3e1d, 0x3e25, 0x3e25, 0x3e25, 0x3e25, 0x3e25, 0x3e2d, 0x3e25, 0x3e1d, 0x3e25, 0x3e2d, 0x3e25, 0x3e2d, 0x3e25, 0x3e2d, 0x3e25, 0x3e2d, 0x3e2d, 0x3e2d, 0x3e35, 0x3e2d, 0xbd11, 0xbf34, 0xbf46, 0xbe55, 0x3e35, 0x3e35, 0x3e25, 0x3de9, 0xbeef, 0xbf54, 0xbf0e, 0xbe87, 0xbefb, 0xbf2a, 0xbf2a, 0xbf34, 0xbf2e, 0xbf18, 0xbf52, 0xbf54, 0xbf4a, 0xbf4a, 0xbeeb, 0x3e0d, 0x3e3d, 0x3e3d, 0x3e3d, 0x3e2d, 0x3e35, 0x3e3d, 0x3e35, 0x3e3d, 0x3e35, 0x3e35, 0x3e35, 0x3e3d, 0x3e35, 0x3e35, 0x3e35, 0x3e35, 0x3e2d, 0x3e35, 0x3e35, 0x3e2d, 0x3e35, 0x3e2d, 0x3e2d, 0x3e35, 0x3e35, 0x3e2d, 0x3e2d, 0x3e2d, 0x3e2d, 0x000, 0x000, 0x000, 0x000, 0x000, 0x3e0d, 0x3e0d, 0x3e15, 0x3e0d, 0x3e0d, 0x3e15, 0x3e15, 0x3e15, 0x3e15, 0x3e15, 0x3e1d, 0x3e15, 0x3e15, 0x3e15, 0x3e15, 0x3e15, 0x3e15, 0x3e15, 0x3e1d, 0x3e25, 0x3e1d, 0x3e25, 0x3e25, 0x3e25, 0x3e25, 0x3e25, 0x3e25, 0x3e1d, 0x3e25, 0x3e25, 0x3e25, 0x3e25, 0x3e2d, 0x3e25, 0x3e15, 0x3e1d, 0x3e2d, 0x3e2d, 0x3e2d, 0x3e2d, 0x3e2d, 0x3e2d, 0x3e1d, 0xbea7, 0xbf48, 0xbf38, 0xbce1, 0x3e35, 0x3e25, 0x3e2d, 0xbd31, 0xbf24, 0xbf4a, 0xbee3, 0xbe6d, 0xbf1a, 0xbf22, 0xbf2a, 0xbf34, 0xbf36, 0xbf3e, 0xbf52, 0xbf52, 0xbf46, 0xbf4c, 0xbe97, 0x3e35, 0x3e3d, 0x3e3d, 0x3e3d, 0x3e2d, 0x3e35, 0x3e45, 0x3e35, 0x3e45, 0x3e35, 0x3e3d, 0x3e45, 0x3e3d, 0x3e35, 0x3e35, 0x3e3d, 0x3e35, 0x3e2d, 0x3e35, 0x3e35, 0x3e35, 0x3e35, 0x3e35, 0x3e35, 0x3e3d, 0x3e35, 0x3e35, 0x3e35, 0x3e2d, 0x3e25, 0x000, 0x000, 0x000, 0x000, 0x000, 0x3e0d, 0x3e05, 0x3e05, 0x3e0d, 0x3e05, 0x3e0d, 0x3e0d, 0x3e15, 0x3e15, 0x3e15, 0x3e1d, 0x3e15, 0x3e15, 0x3e15, 0x3e1d, 0x3e1d, 0x3e1d, 0x3e15, 0x3e1d, 0x3e1d, 0x3e1d, 0x3e0d, 0x3e1d, 0x3e25, 0x3e25, 0x3e2d, 0x3e25, 0x3e2d, 0x3e25, 0x3e25, 0x3e25, 0x3e2d, 0x3e25, 0x3e25, 0x3e2d, 0x3e25, 0x3e2d, 0x3e25, 0x3e2d, 0x3e2d, 0x3e35, 0x3e2d, 0xbca1, 0xbf16, 0xbf46, 0xbf1e, 0x3db9, 0x3e2d, 0x3e25, 0x3e2d, 0xbea3, 0xbf3c, 0xbf2c, 0xbea7, 0xbeb3, 0xbf16, 0xbeef, 0xbedb, 0xbf12, 0xbf40, 0xbf4e, 0xbf54, 0xbf46, 0xbf22, 0xbf40, 0xbe7d, 0x3e35, 0x3e35, 0x3e35, 0x3e35, 0x3e3d, 0x3e35, 0x3e35, 0x3e3d, 0x3e35, 0x3e35, 0x3e35, 0x3e35, 0x3e35, 0x3e35, 0x3e2d, 0x3e35, 0x3e2d, 0x3e35, 0x3e35, 0x3e35, 0x3e35, 0x3e35, 0x3e35, 0x3e3d, 0x3e35, 0x3e25, 0x3e25, 0x3e0d, 0x3df9, 0x3dd9, 0x000, 0x000, 0x000, 0x000, 0x000, 0x3e05, 0x3e05, 0x3e05, 0x3e15, 0x3e15, 0x3e15, 0x3e0d, 0x3e1d, 0x3e1d, 0x3e15, 0x3e1d, 0x3e15, 0x3e15, 0x3e15, 0x3e15, 0x3e25, 0x3e1d, 0x3e1d, 0x3e25, 0x3e25, 0x3e1d, 0x3e1d, 0x3e1d, 0x3e1d, 0x3e25, 0x3e2d, 0x3e2d, 0x3e25, 0x3e15, 0x3e2d, 0x3e35, 0x3e2d, 0x3e25, 0x3e25, 0x3e2d, 0x3e2d, 0x3e25, 0x3e35, 0x3e35, 0x3e2d, 0x3e2d, 0x3d51, 0xbeeb, 0xbf3c, 0xbf46, 0xbee3, 0x3e15, 0x3e25, 0x3e25, 0x3d51, 0xbf02, 0xbf4a, 0xbf0a, 0xbe9f, 0xbee3, 0xbeab, 0xbe65, 0xbeab, 0xbf14, 0xbf36, 0xbf50, 0xbf46, 0xbf2a, 0xbf02, 0xbf36, 0xbe87, 0x3e3d, 0x3e2d, 0x3e3d, 0x3e35, 0x3e35, 0x3e35, 0x3e3d, 0x3e45, 0x3e35, 0x3e35, 0x3e35, 0x3e35, 0x3e35, 0x3e35, 0x3e2d, 0x3e35, 0x3e35, 0x3e2d, 0x3e25, 0x3e1d, 0x3e25, 0x3e35, 0x3e2d, 0x3e2d, 0x3e1d, 0x3df9, 0x3dd9, 0x3d89, 0x3d11, 0x3ce1, 0x000, 0x000, 0x000, 0x000, 0x000, 0x3df9, 0x3df9, 0x3df9, 0x3e0d, 0x3e15, 0x3e15, 0x3e0d, 0x3e15, 0x3e0d, 0x3e0d, 0x3e15, 0x3e1d, 0x3e1d, 0x3e15, 0x3e1d, 0x3e1d, 0x3e1d, 0x3e1d, 0x3e25, 0x3e25, 0x3e25, 0x3e25, 0x3e2d, 0x3e1d, 0x3e25, 0x3e1d, 0x3e1d, 0x3e2d, 0x3e1d, 0x3e25, 0x3e2d, 0x3e1d, 0x3e2d, 0x3e35, 0x3e2d, 0x3e2d, 0x3e2d, 0x3e35, 0x3e35, 0x3e25, 0x3e35, 0xbe87, 0xbf18, 0xbf44, 0xbf42, 0xbe2d, 0x3e2d, 0x3e2d, 0x3e2d, 0xbe3d, 0xbf2e, 0xbf4a, 0xbefb, 0xbedf, 0xbedf, 0xbe93, 0xbea3, 0xbf08, 0xbf1e, 0xbf2c, 0xbf46, 0xbf38, 0xbf12, 0xbee7, 0xbf2e, 0xbe93, 0x3e2d, 0x3e2d, 0x3e2d, 0x3e35, 0x3e35, 0x3e3d, 0x3e3d, 0x3e3d, 0x3e3d, 0x3e35, 0x3e35, 0x3e35, 0x3e35, 0x3e2d, 0x3e25, 0x3e0d, 0x3de9, 0x3dd9, 0x3db9, 0x3db9, 0x3da9, 0x3db9, 0x3dc9, 0x3dc9, 0x3d71, 0x3ca1, 0xbb81, 0xbd71, 0xbdf9, 0xbe15, 0x000, 0x000, 0x000, 0x000, 0x000, 0x3e05, 0x3e05, 0x3e0d, 0x3e0d, 0x3e15, 0x3e0d, 0x3e0d, 0x3e15, 0x3e0d, 0x3e15, 0x3e15, 0x3e1d, 0x3e15, 0x3e15, 0x3e1d, 0x3e1d, 0x3e0d, 0x3e1d, 0x3e2d, 0x3e1d, 0x3e1d, 0x3e1d, 0x3e25, 0x3e1d, 0x3e1d, 0x3e1d, 0x3e1d, 0x3e35, 0x3e25, 0x3e2d, 0x3e2d, 0x3e1d, 0x3e25, 0x3e35, 0x3e2d, 0x3e2d, 0x3e2d, 0x3e2d, 0x3e35, 0x3e35, 0x3db9, 0xbef7, 0xbf22, 0xbf46, 0xbf36, 0xbb81, 0x3e2d, 0x3e2d, 0x3de9, 0xbee3, 0xbf48, 0xbf3a, 0xbf0a, 0xbf2a, 0xbf22, 0xbf10, 0xbefb, 0xbf12, 0xbf22, 0xbf2e, 0xbf36, 0xbf2c, 0xbecf, 0xbf02, 0xbf2e, 0xbe93, 0x3e2d, 0x3e2d, 0x3e35, 0x3e35, 0x3e45, 0x3e3d, 0x3e35, 0x3e35, 0x3e35, 0x3e35, 0x3e2d, 0x3e2d, 0x3e25, 0x3e05, 0x3db9, 0x3d51, 0x3ca1, 0xbca1, 0xbd31, 0xbd31, 0xbd11, 0xbca1, 0xbce1, 0xbd31, 0xbd99, 0xbdd9, 0xbe35, 0xbe83, 0xbe35, 0xbda9, 0x000, 0x000, 0x000, 0x000, 0x000, 0x3e05, 0x3e15, 0x3e0d, 0x3e05, 0x3e0d, 0x3e15, 0x3e15, 0x3e15, 0x3e15, 0x3e15, 0x3e15, 0x3e15, 0x3e0d, 0x3e1d, 0x3e1d, 0x3e1d, 0x3e1d, 0x3e25, 0x3e1d, 0x3e25, 0x3e15, 0x3e25, 0x3e2d, 0x3e25, 0x3e2d, 0x3e2d, 0x3e2d, 0x3e25, 0x3e1d, 0x3e1d, 0x3e2d, 0x3e1d, 0x3e1d, 0x3e25, 0x3e25, 0x3e2d, 0x3e2d, 0x3e35, 0x3e35, 0x3e35, 0xbdf9, 0xbf0c, 0xbf32, 0xbf46, 0xbf10, 0x3df9, 0x3e35, 0x3e2d, 0xbdf9, 0xbf26, 0xbf52, 0xbf28, 0xbf14, 0xbf30, 0xbf34, 0xbf26, 0xbf06, 0xbf1a, 0xbf3e, 0xbf42, 0xbf30, 0xbf1c, 0xbeb3, 0xbf1a, 0xbf40, 0xbe93, 0x3e2d, 0x3e35, 0x3e35, 0x3e3d, 0x3e3d, 0x3e35, 0x3e2d, 0x3e3d, 0x3e3d, 0x3e35, 0x3e2d, 0x3e25, 0x3e15, 0x3dd9, 0x3d31, 0x3b81, 0xbd11, 0xbdb9, 0xbde9, 0xbdd9, 0xbdb9, 0xbda9, 0xbda9, 0xbdc9, 0xbdf9, 0xbe6d, 0xbe65, 0xbe25, 0xbce1, 0x3db9, 0x000, 0x000, 0x000, 0x000, 0x000, 0x3e0d, 0x3e0d, 0x3e15, 0x3e15, 0x3e0d, 0x3e0d, 0x3e15, 0x3e15, 0x3e1d, 0x3e15, 0x3e15, 0x3e1d, 0x3e15, 0x3e15, 0x3e1d, 0x3e1d, 0x3e1d, 0x3e1d, 0x3e1d, 0x3e1d, 0x3e1d, 0x3e25, 0x3e2d, 0x3e25, 0x3e35, 0x3e25, 0x3e1d, 0x3e15, 0x3e15, 0x3e15, 0x3e2d, 0x3e25, 0x3e1d, 0x3e2d, 0x3e25, 0x3e25, 0x3e1d, 0x3e2d, 0x3e2d, 0x3e15, 0xbec3, 0xbf0e, 0xbf3e, 0xbf44, 0xbeaf, 0x3e2d, 0x3e35, 0x3dd9, 0xbef3, 0xbf3a, 0xbf4c, 0xbf1e, 0xbf28, 0xbf32, 0xbf30, 0xbf20, 0xbf0e, 0xbf2a, 0xbf50, 0xbf44, 0xbf34, 0xbf1c, 0xbee7, 0xbf1a, 0xbf46, 0xbe8f, 0x3e35, 0x3e35, 0x3e35, 0x3e3d, 0x3e35, 0x3e1d, 0x3e25, 0x3e35, 0x3e35, 0x3e35, 0x3e25, 0x3e15, 0x3e0d, 0x3dc9, 0x3d51, 0x3b81, 0xbd89, 0xbde9, 0xbdf9, 0xbde9, 0xbdd9, 0xbda9, 0xbda9, 0xbdb9, 0xbdd9, 0xbdd9, 0xbd99, 0xbb81, 0x3de9, 0x3e5d, 0x000, 0x000, 0x000, 0x000, 0x000, 0x3e0d, 0x3e0d, 0x3e0d, 0x3e0d, 0x3e15, 0x3e15, 0x3e15, 0x3e15, 0x3e0d, 0x3e15, 0x3e1d, 0x3e1d, 0x3e15, 0x3e15, 0x3e15, 0x3e1d, 0x3e15, 0x3e1d, 0x3e15, 0x3e1d, 0x3e1d, 0x3e25, 0x3e2d, 0x3e2d, 0x3e2d, 0x3e25, 0x3e1d, 0x3e25, 0x3e2d, 0x3e2d, 0x3e2d, 0x3e35, 0x3e1d, 0x3e35, 0x3e2d, 0x3e2d, 0x3e25, 0x3e2d, 0x3e35, 0x3d11, 0xbf0a, 0xbf16, 0xbf46, 0xbf3e, 0xbd99, 0x3e25, 0x3e1d, 0xbe9b, 0xbf24, 0xbf42, 0xbf38, 0xbf18, 0xbf22, 0xbf18, 0xbf10, 0xbf0e, 0xbf14, 0xbf40, 0xbf50, 0xbf3e, 0xbf34, 0xbf24, 0xbf04, 0xbf1e, 0xbf4c, 0xbe87, 0x3e15, 0x3e05, 0x3e0d, 0x3e05, 0x3e05, 0x3de9, 0x3dd9, 0x3e0d, 0x3d89, 0xbe05, 0xbe9b, 0xbeab, 0xbe9f, 0xbe83, 0xbdd9, 0xbdc9, 0xbdb9, 0xbd99, 0xbd51, 0xbd71, 0xbd99, 0xbd51, 0xbd51, 0xbca1, 0xbd31, 0xbce1, 0x3ce1, 0x3da9, 0x3e25, 0x3e45, 0x000, 0x000, 0x000, 0x000, 0x000, 0x3e0d, 0x3e0d, 0x3e0d, 0x3e15, 0x3e0d, 0x3e15, 0x3e15, 0x3e15, 0x3e0d, 0x3e15, 0x3e1d, 0x3e15, 0x3e15, 0x3e15, 0x3e1d, 0x3e25, 0x3e1d, 0x3e15, 0x3e1d, 0x3e1d, 0x3e1d, 0x3e25, 0x3e2d, 0x3e25, 0x3e25, 0x3e25, 0x3e2d, 0x3e1d, 0x3e2d, 0x3e2d, 0x3e25, 0x3e25, 0x3e25, 0x3e35, 0x3e2d, 0x3e35, 0x3e35, 0x3e2d, 0x3e35, 0xbe65, 0xbf10, 0xbf26, 0xbf46, 0xbf20, 0x3db9, 0x3e25, 0xbdc9, 0xbf24, 0xbf2c, 0xbf4c, 0xbf24, 0xbf10, 0xbf04, 0xbefb, 0xbeff, 0xbf04, 0xbf18, 0xbf48, 0xbf4c, 0xbf2e, 0xbf2e, 0xbf20, 0xbf04, 0xbf24, 0xbf3c, 0xbea7, 0xbdd9, 0xbe05, 0xbe05, 0xbe25, 0xbe25, 0xbe35, 0xbe45, 0xbea7, 0xbf02, 0xbf16, 0xbf18, 0xbf0e, 0xbf0a, 0xbeeb, 0xbe93, 0xbe3d, 0xbd89, 0xbd11, 0xbc41, 0x3ce1, 0x3ca1, 0xbca1, 0x3c41, 0x3ce1, 0x3c41, 0x3dd9, 0x3e15, 0x3e1d, 0x3e35, 0x3e3d, 0x000, 0x000, 0x000, 0x000, 0x000, 0x3e15, 0x3e0d, 0x3e05, 0x3e05, 0x3e0d, 0x3e0d, 0x3e0d, 0x3e15, 0x3e0d, 0x3e25, 0x3e25, 0x3e1d, 0x3e15, 0x3e1d, 0x3e25, 0x3e1d, 0x3e1d, 0x3e15, 0x3e25, 0x3e25, 0x3e1d, 0x3e25, 0x3e1d, 0x3e25, 0x3e25, 0x3e25, 0x3e25, 0x3e1d, 0x3e2d, 0x3e2d, 0x3e25, 0x3e25, 0x3e2d, 0x3e35, 0x3e35, 0x3e25, 0x3e2d, 0x3e35, 0x3db9, 0xbf0c, 0xbf06, 0xbf32, 0xbf46, 0xbed7, 0x3e25, 0x3db9, 0xbf08, 0xbf2c, 0xbf34, 0xbf48, 0xbf1a, 0xbf1e, 0xbf0a, 0xbefb, 0xbf0a, 0xbf0a, 0xbf20, 0xbf46, 0xbf3a, 0xbf22, 0xbf2c, 0xbf20, 0xbf04, 0xbf14, 0xbf14, 0xbeb3, 0xbe9f, 0xbec3, 0xbecf, 0xbedb, 0xbedb, 0xbecb, 0xbed7, 0xbef7, 0xbeff, 0xbf02, 0xbefb, 0xbedb, 0xbeab, 0xbe5d, 0xbdc9, 0xbd51, 0x3c41, 0x3ce1, 0x3d99, 0x3e0d, 0x3e05, 0x3d89, 0x3d11, 0x3d31, 0x3e2d, 0x3e4d, 0x3e45, 0x3e35, 0x3e35, 0x3e35, 0x000, 0x000, 0x000, 0x000, 0x000, 0x3e15, 0x3e15, 0x3e0d, 0x3e15, 0x3e15, 0x3e15, 0x3e15, 0x3e1d, 0x3e15, 0x3e1d, 0x3e15, 0x3e15, 0x3e15, 0x3e1d, 0x3e1d, 0x3e1d, 0x3e1d, 0x3e15, 0x3e25, 0x3e25, 0x3e25, 0x3e25, 0x3e15, 0x3e25, 0x3e25, 0x3e25, 0x3e2d, 0x3e25, 0x3e2d, 0x3e2d, 0x3e2d, 0x3e2d, 0x3e2d, 0x3e35, 0x3e25, 0x3e1d, 0x3e2d, 0x3e2d, 0xbe3d, 0xbf28, 0xbf06, 0xbf3c, 0xbf40, 0xbdc9, 0x3e1d, 0xbe87, 0xbf3c, 0xbf2e, 0xbf3e, 0xbf38, 0xbf1a, 0xbf24, 0xbf0e, 0xbefb, 0xbf10, 0xbf14, 0xbf36, 0xbf36, 0xbf2a, 0xbf22, 0xbf32, 0xbf2a, 0xbf04, 0xbf18, 0xbf1e, 0xbe9b, 0xbe0d, 0xbe4d, 0xbe83, 0xbe8f, 0xbea3, 0xbe93, 0xbe8b, 0xbe9f, 0xbebb, 0xbeaf, 0xbe8f, 0xbe25, 0xbca1, 0x3d99, 0x3db9, 0x3d51, 0x3ca1, 0x3b81, 0x3d51, 0x3df9, 0x3e0d, 0x3da9, 0x3d51, 0x3e0d, 0x3e45, 0x3e3d, 0x3e2d, 0x3e35, 0x3e3d, 0x3e35, 0x000, 0x000, 0x000, 0x000, 0x000, 0x3e0d, 0x3e0d, 0x3e0d, 0x3e15, 0x3e15, 0x3e0d, 0x3e15, 0x3e15, 0x3e15, 0x3e15, 0x3e0d, 0x3e15, 0x3e15, 0x3e1d, 0x3e1d, 0x3e1d, 0x3e1d, 0x3e1d, 0x3e1d, 0x3e25, 0x3e25, 0x3e25, 0x3e25, 0x3e2d, 0x3e25, 0x3e2d, 0x3e2d, 0x3e25, 0x3e2d, 0x3e2d, 0x3e2d, 0x3e35, 0x3e35, 0x3e35, 0x3e1d, 0x3e25, 0x3e2d, 0x3e05, 0xbef3, 0xbf1c, 0xbf12, 0xbf46, 0xbf1c, 0x3db9, 0xbd31, 0xbf1a, 0xbf3c, 0xbf30, 0xbf36, 0xbf16, 0xbee7, 0xbf08, 0xbf02, 0xbf08, 0xbf14, 0xbf34, 0xbf3c, 0xbf28, 0xbf08, 0xbeeb, 0xbf18, 0xbf22, 0xbef3, 0xbf16, 0xbf20, 0xbe93, 0xbd71, 0xbd31, 0xbd31, 0xbd89, 0xbdf9, 0xbda9, 0xbd31, 0xbd99, 0xbdf9, 0xbdf9, 0xbd51, 0x3d99, 0x3e05, 0x3e15, 0x3e15, 0x3c41, 0xbdc9, 0xbe05, 0xbdb9, 0xbd89, 0xbca1, 0x3db9, 0x3e15, 0x3e35, 0x3e35, 0x3e35, 0x3e35, 0x3e3d, 0x3e35, 0x3e35, 0x000, 0x000, 0x000, 0x000, 0x000, 0x3e0d, 0x3e0d, 0x3e0d, 0x3e05, 0x3e15, 0x3e15, 0x3e15, 0x3e15, 0x3e15, 0x3e15, 0x3e15, 0x3e15, 0x3e0d, 0x3e1d, 0x3e1d, 0x3e1d, 0x3e1d, 0x3e1d, 0x3e25, 0x3e1d, 0x3e25, 0x3e25, 0x3e25, 0x3e25, 0x3e1d, 0x3e25, 0x3e25, 0x3e25, 0x3e2d, 0x3e2d, 0x3e2d, 0x3e35, 0x3e35, 0x3e2d, 0x3e2d, 0x3e2d, 0x3e35, 0xbca1, 0xbf28, 0xbf0c, 0xbf22, 0xbf48, 0xbeab, 0x3d99, 0xbf02, 0xbf36, 0xbf32, 0xbf32, 0xbf30, 0xbed7, 0xbebb, 0xbef3, 0xbeeb, 0xbf04, 0xbf1c, 0xbf36, 0xbf36, 0xbf12, 0xbeef, 0xbefb, 0xbf0e, 0xbf0c, 0xbedb, 0xbf08, 0xbf04, 0xbe7d, 0xbd11, 0x3b81, 0x3ce1, 0x3ce1, 0x3ce1, 0x3d31, 0x3d11, 0x3b81, 0xbce1, 0x3c41, 0x3d99, 0x3e0d, 0x3e2d, 0x3e3d, 0x3d89, 0xbca1, 0xbe1d, 0xbea7, 0xbe5d, 0x3b81, 0x3de9, 0x3e35, 0x3e35, 0x3e3d, 0x3e3d, 0x3e3d, 0x3e3d, 0x3e3d, 0x3e35, 0x3e25, 0x000, 0x000, 0x000, 0x000, 0x000, 0x3e15, 0x3e15, 0x3e15, 0x3e0d, 0x3e15, 0x3e1d, 0x3e15, 0x3e15, 0x3e15, 0x3e1d, 0x3e15, 0x3e15, 0x3e1d, 0x3e2d, 0x3e1d, 0x3e25, 0x3e25, 0x3e1d, 0x3e2d, 0x3e1d, 0x3e25, 0x3e1d, 0x3e1d, 0x3e1d, 0x3e1d, 0x3e2d, 0x3e2d, 0x3e25, 0x3e25, 0x3e2d, 0x3e35, 0x3e2d, 0x3e35, 0x3e35, 0x3e2d, 0x3e35, 0x3e2d, 0xbe8b, 0xbf2e, 0xbf0a, 0xbf2c, 0xbf3e, 0xbd51, 0xbe8f, 0xbf26, 0xbf38, 0xbf28, 0xbf2e, 0xbf30, 0xbec7, 0xbe93, 0xbebb, 0xbe8f, 0xbebf, 0xbf20, 0xbf34, 0xbf2a, 0xbf10, 0xbf0e, 0xbf12, 0xbf10, 0xbf04, 0xbecb, 0xbecb, 0xbe8f, 0xbdf9, 0x3b81, 0x3d51, 0x3d99, 0x3db9, 0x3df9, 0x3db9, 0x3d31, 0x3c41, 0x3d11, 0x3da9, 0x3de9, 0x3e25, 0x3e4d, 0x3e3d, 0x3d11, 0xbe8b, 0xbecf, 0xbe0d, 0x3de9, 0x3e35, 0x3e3d, 0x3e45, 0x3e3d, 0x3e35, 0x3e45, 0x3e35, 0x3e35, 0x3e3d, 0x3e2d, 0x3e35, 0x000, 0x000, 0x000, 0x000, 0x000, 0x3e0d, 0x3e0d, 0x3e1d, 0x3e15, 0x3e15, 0x3e15, 0x3e15, 0x3e0d, 0x3e15, 0x3e1d, 0x3e15, 0x3e1d, 0x3e1d, 0x3e25, 0x3e25, 0x3e1d, 0x3e25, 0x3e2d, 0x3e2d, 0x3e2d, 0x3e2d, 0x3e2d, 0x3e2d, 0x3e15, 0x3e25, 0x3e2d, 0x3e25, 0x3e25, 0x3e35, 0x3e2d, 0x3e2d, 0x3e2d, 0x3e2d, 0x3e3d, 0x3e35, 0x3e2d, 0xbca1, 0xbf10, 0xbf28, 0xbf0c, 0xbf3e, 0xbf0a, 0xbd11, 0xbf1a, 0xbf2a, 0xbf34, 0xbf26, 0xbf2e, 0xbf26, 0xbe9b, 0xbe83, 0xbea7, 0xbe7d, 0xbee3, 0xbf14, 0xbf20, 0xbf14, 0xbf1e, 0xbf16, 0xbf08, 0xbef7, 0xbec7, 0xbe87, 0xbe35, 0xbd99, 0x3b81, 0x3da9, 0x3df9, 0x3e1d, 0x3e35, 0x3e25, 0x3de9, 0x3d89, 0x3d31, 0x3d99, 0x3de9, 0x3df9, 0x3dd9, 0xbb81, 0xbe55, 0xbedb, 0xbec3, 0x3c41, 0x3e2d, 0x3e45, 0x3e3d, 0x3e3d, 0x3e3d, 0x3e3d, 0x3e3d, 0x3e3d, 0x3e35, 0x3e3d, 0x3e3d, 0x3e35, 0x3e3d, 0x000, 0x000, 0x000, 0x000, 0x000, 0x3e15, 0x3e15, 0x3e15, 0x3e15, 0x3e15, 0x3e1d, 0x3e1d, 0x3e1d, 0x3e15, 0x3e25, 0x3e1d, 0x3e25, 0x3e1d, 0x3e25, 0x3e25, 0x3e25, 0x3e1d, 0x3e25, 0x3e25, 0x3e25, 0x3e2d, 0x3e2d, 0x3e35, 0x3e25, 0x3e2d, 0x3e2d, 0x3e2d, 0x3e2d, 0x3e2d, 0x3e2d, 0x3e2d, 0x3e35, 0x3e2d, 0x3e3d, 0x3e2d, 0x3df9, 0xbea3, 0xbf1c, 0xbf20, 0xbf18, 0xbf44, 0xbe55, 0xbebb, 0xbf2a, 0xbf2e, 0xbf2e, 0xbf2c, 0xbf2c, 0xbefb, 0xbe83, 0xbea3, 0xbed7, 0xbeff, 0xbf0a, 0xbf06, 0xbf02, 0xbef3, 0xbef3, 0xbedb, 0xbeb3, 0xbe8b, 0xbe35, 0xbdb9, 0xbd11, 0x3d11, 0x3d71, 0x3e1d, 0x3e55, 0x3e5d, 0x3e55, 0x3e35, 0x3e0d, 0x3d71, 0xbe05, 0xbda9, 0xbd51, 0xbd31, 0x3c41, 0xbda9, 0xbecf, 0xbebb, 0x3da9, 0x3e35, 0x3e35, 0x3e45, 0x3e45, 0x3e3d, 0x3e45, 0x3e3d, 0x3e3d, 0x3e3d, 0x3e3d, 0x3e3d, 0x3e3d, 0x3e3d, 0x3e35, 0x000, 0x000, 0x000, 0x000, 0x000, 0x3e15, 0x3e1d, 0x3e15, 0x3e1d, 0x3e15, 0x3e1d, 0x3e1d, 0x3e1d, 0x3e1d, 0x3e1d, 0x3e1d, 0x3e15, 0x3e25, 0x3e1d, 0x3e25, 0x3e25, 0x3e25, 0x3e2d, 0x3e25, 0x3e2d, 0x3e25, 0x3e25, 0x3e35, 0x3e2d, 0x3e2d, 0x3e2d, 0x3e2d, 0x3e35, 0x3e2d, 0x3e2d, 0x3e2d, 0x3e35, 0x3e2d, 0x3e2d, 0x3e2d, 0xbe1d, 0xbef7, 0xbf26, 0xbf24, 0xbf22, 0xbf2a, 0xbe5d, 0xbf28, 0xbf24, 0xbf26, 0xbf2a, 0xbf30, 0xbf26, 0xbf0c, 0xbecb, 0xbef3, 0xbf06, 0xbeff, 0xbeef, 0xbed7, 0xbebf, 0xbe9f, 0xbe87, 0xbe83, 0xbe6d, 0xbe1d, 0xbd89, 0x3b81, 0x3d11, 0x3ca1, 0xbd89, 0x3e25, 0x3e4d, 0x3e45, 0x3e2d, 0x3dc9, 0x3ca1, 0xbd99, 0xbe7d, 0xbe3d, 0xbd11, 0x3db9, 0x3e45, 0x3e35, 0xbd71, 0x3d11, 0x3e3d, 0x3e45, 0x3e3d, 0x3e3d, 0x3e45, 0x3e3d, 0x3e45, 0x3e3d, 0x3e3d, 0x3e3d, 0x3e3d, 0x3e3d, 0x3e3d, 0x3e3d, 0x3e35, 0x000, 0x000, 0x000, 0x000, 0x000, 0x3e15, 0x3e1d, 0x3e15, 0x3e15, 0x3e0d, 0x3e15, 0x3e15, 0x3e1d, 0x3e1d, 0x3e25, 0x3e15, 0x3e15, 0x3e1d, 0x3e1d, 0x3e25, 0x3e1d, 0x3e1d, 0x3e15, 0x3e15, 0x3e25, 0x3e1d, 0x3e25, 0x3e2d, 0x3e2d, 0x3e25, 0x3e2d, 0x3e2d, 0x3e2d, 0x3e2d, 0x3e2d, 0x3e2d, 0x3e35, 0x3e2d, 0x3e2d, 0x3dc9, 0xbee7, 0xbf02, 0xbf32, 0xbf22, 0xbf2a, 0xbf16, 0xbf22, 0xbf34, 0xbf24, 0xbf26, 0xbf2a, 0xbf2a, 0xbf1c, 0xbf0e, 0xbeb7, 0xbecb, 0xbec7, 0xbeb3, 0xbe9b, 0xbe83, 0xbe75, 0xbe6d, 0xbe6d, 0xbe65, 0xbe35, 0xbdd9, 0xbca1, 0x3d71, 0x3d89, 0xbd31, 0xbe65, 0xbdd9, 0xbd99, 0xbe15, 0xbe8f, 0xbe4d, 0xbe45, 0xbdd9, 0xbca1, 0x3db9, 0x3e25, 0x3e3d, 0x3e3d, 0x3e3d, 0x3e45, 0x3e3d, 0x3e3d, 0x3e3d, 0x3e3d, 0x3e3d, 0x3e3d, 0x3e3d, 0x3e3d, 0x3e3d, 0x3e3d, 0x3e3d, 0x3e3d, 0x3e3d, 0x3e3d, 0x3e3d, 0x3e35, 0x000, 0x000, 0x000, 0x000, 0x000, 0x3e1d, 0x3e15, 0x3e1d, 0x3e15, 0x3e0d, 0x3e1d, 0x3e1d, 0x3e25, 0x3e25, 0x3e1d, 0x3e1d, 0x3e2d, 0x3e25, 0x3e15, 0x3e25, 0x3e1d, 0x3e1d, 0x3e15, 0x3e1d, 0x3e25, 0x3e2d, 0x3e2d, 0x3e2d, 0x3e25, 0x3e25, 0x3e25, 0x3e2d, 0x3e2d, 0x3e2d, 0x3e2d, 0x3e2d, 0x3e25, 0x3e35, 0x3e35, 0xbe2d, 0xbf0c, 0xbf08, 0xbf34, 0xbf1c, 0xbf38, 0xbf44, 0xbf4e, 0xbf32, 0xbf20, 0xbf20, 0xbf1a, 0xbf0e, 0xbefb, 0xbed7, 0xbe8f, 0xbe75, 0xbe6d, 0xbe7d, 0xbe8f, 0xbe93, 0xbe87, 0xbe83, 0xbe7d, 0xbe1d, 0xbd51, 0xbd31, 0xbda9, 0xbda9, 0xbe1d, 0xbe8b, 0xbeb3, 0xbde9, 0xbd11, 0xbdc9, 0xbe0d, 0x3d51, 0x3e05, 0x3e1d, 0x3e25, 0x3e2d, 0x3e35, 0x3e45, 0x3e45, 0x3e3d, 0x3e4d, 0x3e3d, 0x3e3d, 0x3e3d, 0x3e3d, 0x3e3d, 0x3e3d, 0x3e3d, 0x3e45, 0x3e3d, 0x3e35, 0x3e3d, 0x3e3d, 0x3e3d, 0x3e3d, 0x3e3d, 0x3e3d, 0x000, 0x000, 0x000, 0x000, 0x000, 0x3e1d, 0x3e1d, 0x3e15, 0x3e15, 0x3e15, 0x3e25, 0x3e15, 0x3e15, 0x3e1d, 0x3e25, 0x3e25, 0x3e2d, 0x3e2d, 0x3e1d, 0x3e25, 0x3e1d, 0x3e1d, 0x3e25, 0x3e25, 0x3e25, 0x3e2d, 0x3e35, 0x3e35, 0x3e25, 0x3e25, 0x3e2d, 0x3e2d, 0x3e25, 0x3e2d, 0x3e35, 0x3e2d, 0x3e2d, 0x3e2d, 0x3dc9, 0xbedf, 0xbf06, 0xbf18, 0xbf2c, 0xbf24, 0xbf44, 0xbf58, 0xbf4c, 0xbf2c, 0xbf24, 0xbf1a, 0xbf06, 0xbed7, 0xbeb7, 0xbe97, 0xbe6d, 0xbe75, 0xbe9f, 0xbeaf, 0xbeb3, 0xbeb3, 0xbe9f, 0xbe87, 0xbe4d, 0xbdf9, 0xbe0d, 0xbe97, 0xbee7, 0xbebf, 0xbf16, 0xbf46, 0xbf3a, 0xbc41, 0x3e35, 0x3e35, 0x3e3d, 0x3e3d, 0x3e3d, 0x3e3d, 0x3e35, 0x3e3d, 0x3e35, 0x3e3d, 0x3e3d, 0x3e3d, 0x3e45, 0x3e45, 0x3e35, 0x3e3d, 0x3e3d, 0x3e45, 0x3e45, 0x3e45, 0x3e45, 0x3e35, 0x3e3d, 0x3e3d, 0x3e3d, 0x3e35, 0x3e35, 0x3e35, 0x3e45, 0x000, 0x000, 0x000, 0x000, 0x000, 0x3e15, 0x3e1d, 0x3e15, 0x3e15, 0x3e1d, 0x3e1d, 0x3e15, 0x3e1d, 0x3e15, 0x3e1d, 0x3e1d, 0x3e1d, 0x3e25, 0x3e1d, 0x3e25, 0x3e25, 0x3e2d, 0x3e2d, 0x3e25, 0x3e25, 0x3e25, 0x3e2d, 0x3e2d, 0x3e2d, 0x3e25, 0x3e2d, 0x3e25, 0x3e2d, 0x3e35, 0x3e35, 0x3e35, 0x3e35, 0x3e2d, 0xbdc9, 0xbf04, 0xbf0c, 0xbf18, 0xbf2a, 0xbf26, 0xbf4c, 0xbf4a, 0xbf2e, 0xbf1e, 0xbf0c, 0xbec7, 0xbea3, 0xbe7d, 0xbe75, 0xbe9f, 0xbebf, 0xbedb, 0xbeef, 0xbedb, 0xbed7, 0xbedf, 0xbed3, 0xbeb3, 0xbeaf, 0xbecf, 0xbf0a, 0xbf24, 0xbf36, 0xbf12, 0xbf2c, 0xbf58, 0xbf46, 0xbd71, 0x3e3d, 0x3e35, 0x3e35, 0x3e3d, 0x3e3d, 0x3e3d, 0x3e3d, 0x3e3d, 0x3e3d, 0x3e35, 0x3e3d, 0x3e3d, 0x3e3d, 0x3e45, 0x3e3d, 0x3e3d, 0x3e3d, 0x3e3d, 0x3e3d, 0x3e3d, 0x3e45, 0x3e3d, 0x3e3d, 0x3e3d, 0x3e3d, 0x3e45, 0x3e3d, 0x3e3d, 0x3e35, 0x000, 0x000, 0x000, 0x000, 0x000, 0x3e15, 0x3e15, 0x3e1d, 0x3e1d, 0x3e1d, 0x3e15, 0x3e1d, 0x3e1d, 0x3e1d, 0x3e1d, 0x3e1d, 0x3e1d, 0x3e1d, 0x3e1d, 0x3e25, 0x3e1d, 0x3e15, 0x3e1d, 0x3e25, 0x3e25, 0x3e2d, 0x3e2d, 0x3e2d, 0x3e25, 0x3e25, 0x3e35, 0x3e2d, 0x3e2d, 0x3e35, 0x3e3d, 0x3e35, 0x3e35, 0x3df9, 0xbeab, 0xbf0c, 0xbeff, 0xbf18, 0xbf34, 0xbf2c, 0xbf48, 0xbf24, 0xbeff, 0xbeeb, 0xbec3, 0xbe7d, 0xbe3d, 0xbe6d, 0xbeb3, 0xbee7, 0xbeef, 0xbf06, 0xbf0c, 0xbef7, 0xbef7, 0xbf0e, 0xbf1a, 0xbf22, 0xbf26, 0xbf30, 0xbf44, 0xbf3e, 0xbf2a, 0xbf10, 0xbf1a, 0xbf48, 0xbf50, 0xbe2d, 0x3e3d, 0x3e3d, 0x3e3d, 0x3e3d, 0x3e3d, 0x3e35, 0x3e3d, 0x3e3d, 0x3e3d, 0x3e3d, 0x3e3d, 0x3e35, 0x3e3d, 0x3e45, 0x3e3d, 0x3e3d, 0x3e3d, 0x3e3d, 0x3e3d, 0x3e3d, 0x3e3d, 0x3e3d, 0x3e3d, 0x3e45, 0x3e3d, 0x3e35, 0x3e35, 0x3e3d, 0x3e35, 0x000, 0x000, 0x000, 0x000, 0x000, 0x3e1d, 0x3e0d, 0x3e1d, 0x3e1d, 0x3e25, 0x3e15, 0x3e1d, 0x3e1d, 0x3e1d, 0x3e25, 0x3e1d, 0x3e1d, 0x3e15, 0x3e1d, 0x3e25, 0x3e25, 0x3e2d, 0x3e35, 0x3e2d, 0x3e2d, 0x3e2d, 0x3e2d, 0x3e2d, 0x3e2d, 0x3e25, 0x3e35, 0x3e2d, 0x3e35, 0x3e35, 0x3e3d, 0x3e3d, 0x3e35, 0xbc41, 0xbedb, 0xbf08, 0xbefb, 0xbf26, 0xbf38, 0xbf2a, 0xbf2e, 0xbeeb, 0xbea7, 0xbe97, 0xbe97, 0xbe87, 0xbe75, 0xbe9f, 0xbee3, 0xbf04, 0xbefb, 0xbf06, 0xbf08, 0xbefb, 0xbf0a, 0xbf22, 0xbf38, 0xbf46, 0xbf42, 0xbf42, 0xbf44, 0xbf34, 0xbf20, 0xbf04, 0xbef3, 0xbeff, 0xbf38, 0xbeb7, 0x3e2d, 0x3e3d, 0x3e3d, 0x3e3d, 0x3e45, 0x3e3d, 0x3e3d, 0x3e3d, 0x3e35, 0x3e3d, 0x3e3d, 0x3e35, 0x3e3d, 0x3e45, 0x3e4d, 0x3e3d, 0x3e3d, 0x3e45, 0x3e45, 0x3e3d, 0x3e3d, 0x3e45, 0x3e3d, 0x3e3d, 0x3e3d, 0x3e35, 0x3e35, 0x3e3d, 0x3e35, 0x000, 0x000, 0x000, 0x000, 0x000, 0x3e1d, 0x3e0d, 0x3e15, 0x3e1d, 0x3e1d, 0x3e1d, 0x3e1d, 0x3e1d, 0x3e1d, 0x3e25, 0x3e25, 0x3e25, 0x3e25, 0x3e2d, 0x3e25, 0x3e25, 0x3e2d, 0x3e2d, 0x3e25, 0x3e2d, 0x3e2d, 0x3e35, 0x3e35, 0x3e35, 0x3e35, 0x3e2d, 0x3e35, 0x3e35, 0x3e2d, 0x3e3d, 0x3e2d, 0x3e05, 0xbe4d, 0xbef7, 0xbefb, 0xbef7, 0xbf34, 0xbf3c, 0xbf36, 0xbf22, 0xbedb, 0xbe8b, 0xbe75, 0xbe93, 0xbe97, 0xbe8b, 0xbebb, 0xbeeb, 0xbeff, 0xbeef, 0xbf04, 0xbf0e, 0xbf06, 0xbf22, 0xbf40, 0xbf42, 0xbf48, 0xbf44, 0xbf46, 0xbf42, 0xbf32, 0xbf22, 0xbf0c, 0xbefb, 0xbebb, 0xbed7, 0xbee3, 0x3de9, 0x3e3d, 0x3e3d, 0x3e3d, 0x3e3d, 0x3e3d, 0x3e3d, 0x3e45, 0x3e35, 0x3e45, 0x3e35, 0x3e3d, 0x3e45, 0x3e45, 0x3e45, 0x3e45, 0x3e3d, 0x3e45, 0x3e3d, 0x3e3d, 0x3e3d, 0x3e3d, 0x3e3d, 0x3e3d, 0x3e45, 0x3e45, 0x3e3d, 0x3e3d, 0x3e3d, 0x000, 0x000, 0x000, 0x000, 0x000, 0x3e1d, 0x3e15, 0x3e15, 0x3e1d, 0x3e15, 0x3e15, 0x3e1d, 0x3e2d, 0x3e1d, 0x3e25, 0x3e25, 0x3e25, 0x3e25, 0x3e25, 0x3e25, 0x3e1d, 0x3e25, 0x3e2d, 0x3e2d, 0x3e2d, 0x3e2d, 0x3e2d, 0x3e35, 0x3e2d, 0x3e25, 0x3e2d, 0x3e35, 0x3e2d, 0x3e35, 0x3e2d, 0x3e35, 0x3b81, 0xbeb3, 0xbf10, 0xbef7, 0xbf0a, 0xbf3c, 0xbf3c, 0xbf48, 0xbf40, 0xbf14, 0xbe97, 0xbe55, 0xbe7d, 0xbe9b, 0xbea7, 0xbec7, 0xbeef, 0xbf04, 0xbf06, 0xbf0c, 0xbf14, 0xbf10, 0xbf24, 0xbf3c, 0xbf44, 0xbf46, 0xbf48, 0xbf52, 0xbf4c, 0xbf34, 0xbf2c, 0xbf1c, 0xbf0c, 0xbed7, 0xbe8f, 0xbeaf, 0x3d89, 0x3e3d, 0x3e3d, 0x3e3d, 0x3e3d, 0x3e3d, 0x3e45, 0x3e45, 0x3e35, 0x3e3d, 0x3e35, 0x3e3d, 0x3e45, 0x3e45, 0x3e3d, 0x3e45, 0x3e3d, 0x3e3d, 0x3e45, 0x3e3d, 0x3e45, 0x3e3d, 0x3e3d, 0x3e3d, 0x3e45, 0x3e3d, 0x3e3d, 0x3e35, 0x3e35, 0x000, 0x000, 0x000, 0x000, 0x000, 0x3e15, 0x3e15, 0x3e15, 0x3e15, 0x3e1d, 0x3e15, 0x3e1d, 0x3e1d, 0x3e1d, 0x3e1d, 0x3e25, 0x3e25, 0x3e25, 0x3e1d, 0x3e1d, 0x3e35, 0x3e25, 0x3e2d, 0x3e25, 0x3e2d, 0x3e25, 0x3e2d, 0x3e2d, 0x3e1d, 0x3e25, 0x3e2d, 0x3e35, 0x3e3d, 0x3e2d, 0x3e2d, 0x3e25, 0xbe3d, 0xbedf, 0xbf04, 0xbeef, 0xbf1e, 0xbf40, 0xbf36, 0xbf4c, 0xbf46, 0xbf0a, 0xbe93, 0xbe6d, 0xbe65, 0xbe87, 0xbe97, 0xbeb7, 0xbee3, 0xbf0e, 0xbf18, 0xbf1c, 0xbf1e, 0xbf1a, 0xbf22, 0xbf32, 0xbf38, 0xbf42, 0xbf4a, 0xbf52, 0xbf48, 0xbf36, 0xbf38, 0xbf34, 0xbf18, 0xbef7, 0xbeaf, 0xbe83, 0x3ca1, 0x3e35, 0x3e3d, 0x3e3d, 0x3e35, 0x3e35, 0x3e3d, 0x3e3d, 0x3e35, 0x3e3d, 0x3e3d, 0x3e3d, 0x3e3d, 0x3e3d, 0x3e35, 0x3e45, 0x3e45, 0x3e3d, 0x3e3d, 0x3e3d, 0x3e45, 0x3e3d, 0x3e35, 0x3e35, 0x3e45, 0x3e3d, 0x3e3d, 0x3e3d, 0x3e3d, 0x000, 0x000, 0x000, 0x000, 0x000, 0x3e15, 0x3e15, 0x3e15, 0x3e1d, 0x3e15, 0x3e1d, 0x3e25, 0x3e25, 0x3e1d, 0x3e1d, 0x3e1d, 0x3e25, 0x3e2d, 0x3e25, 0x3e1d, 0x3e25, 0x3e2d, 0x3e2d, 0x3e2d, 0x3e2d, 0x3e2d, 0x3e2d, 0x3e35, 0x3e2d, 0x3e2d, 0x3e2d, 0x3e35, 0x3e35, 0x3e2d, 0x3e35, 0x3da9, 0xbe9f, 0xbef3, 0xbee7, 0xbeeb, 0xbf2c, 0xbf48, 0xbf34, 0xbf4e, 0xbf3e, 0xbf0a, 0xbee3, 0xbea3, 0xbe9b, 0xbe8f, 0xbe9b, 0xbebf, 0xbee7, 0xbf10, 0xbf28, 0xbf26, 0xbf20, 0xbf1c, 0xbf22, 0xbf26, 0xbf28, 0xbf3a, 0xbf3e, 0xbf40, 0xbf38, 0xbf3a, 0xbf3e, 0xbf36, 0xbf1a, 0xbf04, 0xbec7, 0xbe6d, 0x3ca1, 0x3e3d, 0x3e3d, 0x3e3d, 0x3e45, 0x3e3d, 0x3e45, 0x3e3d, 0x3e3d, 0x3e45, 0x3e45, 0x3e3d, 0x3e3d, 0x3e3d, 0x3e3d, 0x3e3d, 0x3e3d, 0x3e3d, 0x3e3d, 0x3e45, 0x3e3d, 0x3e3d, 0x3e3d, 0x3e3d, 0x3e45, 0x3e3d, 0x3e3d, 0x3e3d, 0x3e3d, 0x000, 0x000, 0x000, 0x000, 0x000, 0x3e15, 0x3e15, 0x3e15, 0x3e15, 0x3e1d, 0x3e1d, 0x3e25, 0x3e1d, 0x3e15, 0x3e1d, 0x3e15, 0x3e1d, 0x3e2d, 0x3e2d, 0x3e25, 0x3e1d, 0x3e2d, 0x3e2d, 0x3e2d, 0x3e2d, 0x3e25, 0x3e2d, 0x3e2d, 0x3e25, 0x3e25, 0x3e2d, 0x3e2d, 0x3e25, 0x3e2d, 0x3e3d, 0xbd99, 0xbeb3, 0xbf0a, 0xbed3, 0xbeff, 0xbf32, 0xbf4a, 0xbf3a, 0xbf56, 0xbf32, 0xbf1c, 0xbf06, 0xbed7, 0xbea7, 0xbeb7, 0xbec3, 0xbecb, 0xbef3, 0xbf16, 0xbf34, 0xbf36, 0xbf24, 0xbf1c, 0xbf2e, 0xbf2e, 0xbf2e, 0xbf32, 0xbf34, 0xbf34, 0xbf28, 0xbf32, 0xbf38, 0xbf34, 0xbf20, 0xbf0a, 0xbedb, 0xbe65, 0x3d51, 0x3e3d, 0x3e3d, 0x3e3d, 0x3e3d, 0x3e45, 0x3e3d, 0x3e45, 0x3e45, 0x3e45, 0x3e3d, 0x3e3d, 0x3e3d, 0x3e45, 0x3e45, 0x3e3d, 0x3e45, 0x3e45, 0x3e3d, 0x3e45, 0x3e45, 0x3e45, 0x3e3d, 0x3e35, 0x3e3d, 0x3e3d, 0x3e3d, 0x3e3d, 0x3e35, 0x000, 0x000, 0x000, 0x000, 0x000, 0x3e15, 0x3e1d, 0x3e15, 0x3e15, 0x3e15, 0x3e1d, 0x3e1d, 0x3e1d, 0x3e15, 0x3e25, 0x3e25, 0x3e1d, 0x3e25, 0x3e25, 0x3e25, 0x3e25, 0x3e2d, 0x3e2d, 0x3e2d, 0x3e25, 0x3e25, 0x3e35, 0x3e2d, 0x3e1d, 0x3e25, 0x3e2d, 0x3e2d, 0x3e2d, 0x3e35, 0x3e1d, 0xbe75, 0xbec7, 0xbeef, 0xbed7, 0xbf12, 0xbf2a, 0xbf48, 0xbf48, 0xbf4a, 0xbf20, 0xbf14, 0xbefb, 0xbefb, 0xbeeb, 0xbf06, 0xbef3, 0xbedf, 0xbef7, 0xbf18, 0xbf36, 0xbf2e, 0xbf1e, 0xbf14, 0xbf24, 0xbf32, 0xbf38, 0xbf2c, 0xbf32, 0xbf34, 0xbf2c, 0xbf3a, 0xbf3a, 0xbf2e, 0xbf1c, 0xbf06, 0xbeef, 0xbe8b, 0x3ce1, 0x3e3d, 0x3e3d, 0x3e3d, 0x3e3d, 0x3e3d, 0x3e3d, 0x3e3d, 0x3e45, 0x3e45, 0x3e3d, 0x3e3d, 0x3e3d, 0x3e45, 0x3e45, 0x3e3d, 0x3e3d, 0x3e3d, 0x3e3d, 0x3e3d, 0x3e3d, 0x3e35, 0x3e45, 0x3e35, 0x3e35, 0x3e3d, 0x3e45, 0x3e3d, 0x3e3d, 0x000, 0x000, 0x000, 0x000, 0x000, 0x3e1d, 0x3e1d, 0x3e15, 0x3e15, 0x3e15, 0x3e15, 0x3e1d, 0x3e25, 0x3e1d, 0x3e1d, 0x3e25, 0x3e25, 0x3e1d, 0x3e25, 0x3e1d, 0x3e25, 0x3e2d, 0x3e2d, 0x3e25, 0x3e1d, 0x3e2d, 0x3e2d, 0x3e35, 0x3e2d, 0x3e35, 0x3e2d, 0x3e2d, 0x3e2d, 0x3e2d, 0x3d51, 0xbe9f, 0xbeef, 0xbedf, 0xbedf, 0xbf14, 0xbf36, 0xbf3e, 0xbf4e, 0xbf3a, 0xbf20, 0xbf10, 0xbee3, 0xbefb, 0xbf12, 0xbf16, 0xbefb, 0xbee3, 0xbef3, 0xbf1a, 0xbf30, 0xbeff, 0xbee7, 0xbef7, 0xbf0e, 0xbf32, 0xbf32, 0xbf32, 0xbf3a, 0xbf38, 0xbf38, 0xbf3c, 0xbf30, 0xbf18, 0xbf0a, 0xbefb, 0xbef3, 0xbea3, 0xbb81, 0x3e45, 0x3e3d, 0x3e3d, 0x3e3d, 0x3e45, 0x3e3d, 0x3e3d, 0x3e4d, 0x3e45, 0x3e3d, 0x3e3d, 0x3e45, 0x3e45, 0x3e45, 0x3e3d, 0x3e45, 0x3e45, 0x3e3d, 0x3e45, 0x3e45, 0x3e35, 0x3e45, 0x3e2d, 0x3e3d, 0x3e3d, 0x3e3d, 0x3e3d, 0x3e3d, 0x000, 0x000, 0x000, 0x000, 0x000, 0x3e15, 0x3e25, 0x3e25, 0x3e1d, 0x3e1d, 0x3e1d, 0x3e25, 0x3e35, 0x3e25, 0x3e15, 0x3e25, 0x3e25, 0x3e25, 0x3e25, 0x3e1d, 0x3e1d, 0x3e25, 0x3e25, 0x3e35, 0x3e25, 0x3e2d, 0x3e2d, 0x3e35, 0x3e2d, 0x3e2d, 0x3e2d, 0x3e25, 0x3e25, 0x3e2d, 0xbdf9, 0xbeaf, 0xbf04, 0xbedf, 0xbef3, 0xbf18, 0xbf48, 0xbf38, 0xbf52, 0xbf3a, 0xbf26, 0xbf1e, 0xbf12, 0xbf18, 0xbf18, 0xbf10, 0xbef3, 0xbef7, 0xbf06, 0xbf26, 0xbf38, 0xbec7, 0xbe9b, 0xbe9b, 0xbec7, 0xbf1c, 0xbf24, 0xbf40, 0xbf46, 0xbf3e, 0xbf40, 0xbf2e, 0xbf16, 0xbefb, 0xbeef, 0xbedf, 0xbef3, 0xbecb, 0xbdf9, 0x3e35, 0x3e3d, 0x3e3d, 0x3e3d, 0x3e3d, 0x3e3d, 0x3e3d, 0x3e3d, 0x3e3d, 0x3e3d, 0x3e3d, 0x3e3d, 0x3e45, 0x3e3d, 0x3e3d, 0x3e45, 0x3e4d, 0x3e3d, 0x3e3d, 0x3e3d, 0x3e3d, 0x3e3d, 0x3e3d, 0x3e3d, 0x3e3d, 0x3e3d, 0x3e3d, 0x3e3d, 0x000, 0x000, 0x000, 0x000, 0x000, 0x3e1d, 0x3e1d, 0x3e25, 0x3e1d, 0x3e15, 0x3e1d, 0x3e25, 0x3e2d, 0x3e25, 0x3e25, 0x3e1d, 0x3e25, 0x3e1d, 0x3e1d, 0x3e25, 0x3e25, 0x3e1d, 0x3e1d, 0x3e1d, 0x3e25, 0x3e2d, 0x3e35, 0x3e35, 0x3e2d, 0x3e2d, 0x3e2d, 0x3e25, 0x3e2d, 0x3e15, 0xbe7d, 0xbeaf, 0xbeeb, 0xbed3, 0xbf14, 0xbf14, 0xbf4e, 0xbf3c, 0xbf4c, 0xbf36, 0xbf2a, 0xbf2e, 0xbf32, 0xbf36, 0xbf30, 0xbf1a, 0xbf08, 0xbf08, 0xbf14, 0xbf30, 0xbf3c, 0xbebb, 0xbe0d, 0xbdf9, 0xbe8b, 0xbedb, 0xbf14, 0xbf3e, 0xbf4e, 0xbf42, 0xbf36, 0xbf20, 0xbf02, 0xbedb, 0xbed3, 0xbec7, 0xbeeb, 0xbee3, 0xbebf, 0x3da9, 0x3e3d, 0x3e3d, 0x3e35, 0x3e35, 0x3e3d, 0x3e3d, 0x3e3d, 0x3e35, 0x3e3d, 0x3e45, 0x3e3d, 0x3e3d, 0x3e45, 0x3e45, 0x3e45, 0x3e45, 0x3e45, 0x3e3d, 0x3e3d, 0x3e3d, 0x3e3d, 0x3e3d, 0x3e3d, 0x3e3d, 0x3e3d, 0x3e35, 0x3e3d, 0x000, 0x000, 0x000, 0x000, 0x000, 0x3e15, 0x3e15, 0x3e1d, 0x3e1d, 0x3e15, 0x3e1d, 0x3e1d, 0x3e1d, 0x3e15, 0x3e1d, 0x3e25, 0x3e25, 0x3e15, 0x3e1d, 0x3e1d, 0x3e25, 0x3e1d, 0x3e1d, 0x3e1d, 0x3e25, 0x3e2d, 0x3e2d, 0x3e2d, 0x3e2d, 0x3e2d, 0x3e2d, 0x3e25, 0x3e25, 0x3d71, 0xbeab, 0xbebb, 0xbedb, 0xbeff, 0xbf28, 0xbf22, 0xbf4c, 0xbf3e, 0xbf3e, 0xbf32, 0xbf2e, 0xbf2e, 0xbf36, 0xbf3c, 0xbf38, 0xbf2c, 0xbf1e, 0xbf18, 0xbf26, 0xbf3e, 0xbf3c, 0xbeaf, 0xbdc9, 0xbd31, 0xbe4d, 0xbe9b, 0xbeff, 0xbf28, 0xbf4e, 0xbf42, 0xbf30, 0xbf1a, 0xbeff, 0xbee3, 0xbecb, 0xbeaf, 0xbecb, 0xbf08, 0xbf0c, 0xbde9, 0x3e25, 0x3e35, 0x3e35, 0x3e45, 0x3e45, 0x3e35, 0x3e3d, 0x3e35, 0x3e3d, 0x3e45, 0x3e3d, 0x3e35, 0x3e45, 0x3e45, 0x3e3d, 0x3e3d, 0x3e45, 0x3e3d, 0x3e45, 0x3e3d, 0x3e3d, 0x3e35, 0x3e3d, 0x3e35, 0x3e3d, 0x3e3d, 0x3e35, 0x000, 0x000, 0x000, 0x000, 0x000, 0x3e1d, 0x3e15, 0x3e15, 0x3e15, 0x3e0d, 0x3e1d, 0x3e15, 0x3e1d, 0x3e0d, 0x3e15, 0x3e25, 0x3e25, 0x3e1d, 0x3e25, 0x3e1d, 0x3e2d, 0x3e25, 0x3e25, 0x3e25, 0x3e25, 0x3e2d, 0x3e2d, 0x3e2d, 0x3e2d, 0x3e35, 0x3e35, 0x3e2d, 0x3e2d, 0xbd89, 0xbebb, 0xbed3, 0xbecb, 0xbf06, 0xbf24, 0xbf30, 0xbf42, 0xbf3c, 0xbf30, 0xbf26, 0xbf26, 0xbf28, 0xbf32, 0xbf3a, 0xbf3a, 0xbf38, 0xbf32, 0xbf2a, 0xbf32, 0xbf40, 0xbf40, 0xbedb, 0xbdf9, 0xbc41, 0xbde9, 0xbe4d, 0xbeb7, 0xbf14, 0xbf42, 0xbf40, 0xbf34, 0xbf1c, 0xbf02, 0xbee7, 0xbec3, 0xbea7, 0xbec3, 0xbf16, 0xbf20, 0xbecf, 0xbd31, 0x3e35, 0x3e35, 0x3e3d, 0x3e3d, 0x3e35, 0x3e35, 0x3e3d, 0x3e3d, 0x3e3d, 0x3e3d, 0x3e3d, 0x3e3d, 0x3e3d, 0x3e3d, 0x3e3d, 0x3e3d, 0x3e45, 0x3e3d, 0x3e3d, 0x3e45, 0x3e35, 0x3e3d, 0x3e35, 0x3e35, 0x3e3d, 0x3e3d, 0x000, 0x000, 0x000, 0x000, 0x000, 0x3e15, 0x3e15, 0x3e15, 0x3e1d, 0x3e15, 0x3e25, 0x3e1d, 0x3e1d, 0x3e1d, 0x3e15, 0x3e25, 0x3e25, 0x3e25, 0x3e2d, 0x3e25, 0x3e25, 0x3e2d, 0x3e2d, 0x3e25, 0x3e25, 0x3e1d, 0x3e15, 0x3e2d, 0x3e2d, 0x3e2d, 0x3e2d, 0x3e2d, 0x3e1d, 0xbe4d, 0xbeab, 0xbedf, 0xbea3, 0xbef7, 0xbf24, 0xbf44, 0xbf36, 0xbf38, 0xbf1c, 0xbf1a, 0xbf20, 0xbf28, 0xbf32, 0xbf36, 0xbf34, 0xbf36, 0xbf3a, 0xbf3a, 0xbf3a, 0xbf42, 0xbf3a, 0xbf12, 0xbe55, 0xbb81, 0xbd31, 0xbe1d, 0xbe93, 0xbedf, 0xbf1c, 0xbf36, 0xbf30, 0xbf1a, 0xbf08, 0xbee7, 0xbec3, 0xbea3, 0xbe9f, 0xbf04, 0xbf1e, 0xbf0a, 0xbe97, 0x3da9, 0x3e25, 0x3e3d, 0x3e3d, 0x3e3d, 0x3e45, 0x3e45, 0x3e3d, 0x3e3d, 0x3e3d, 0x3e45, 0x3e3d, 0x3e45, 0x3e3d, 0x3e45, 0x3e3d, 0x3e4d, 0x3e45, 0x3e35, 0x3e45, 0x3e3d, 0x3e3d, 0x3e3d, 0x3e3d, 0x3e3d, 0x3e3d, 0x000, 0x000, 0x000, 0x000, 0x000, 0x3e0d, 0x3e0d, 0x3e15, 0x3e1d, 0x3e15, 0x3e15, 0x3e15, 0x3e1d, 0x3e25, 0x3e1d, 0x3e25, 0x3e25, 0x3e25, 0x3e1d, 0x3e1d, 0x3e1d, 0x3e25, 0x3e05, 0xbca1, 0x3dd9, 0x3e25, 0x3e1d, 0x3e25, 0x3e2d, 0x3e35, 0x3e2d, 0x3e2d, 0x3dc9, 0xbe8b, 0xbe93, 0xbed7, 0xbea7, 0xbf04, 0xbf22, 0xbf4e, 0xbf34, 0xbf2c, 0xbf16, 0xbf1a, 0xbf1e, 0xbf24, 0xbf2a, 0xbf30, 0xbf2e, 0xbf2e, 0xbf36, 0xbf3c, 0xbf3c, 0xbf3c, 0xbf3a, 0xbf30, 0xbeb3, 0xbd31, 0xbd51, 0xbdf9, 0xbe7d, 0xbea7, 0xbeeb, 0xbf1e, 0xbf24, 0xbf16, 0xbf10, 0xbef3, 0xbecf, 0xbeb3, 0xbe93, 0xbec7, 0xbf1a, 0xbf22, 0xbf02, 0xbe65, 0x3da9, 0x3e3d, 0x3e45, 0x3e45, 0x3e3d, 0x3e3d, 0x3e45, 0x3e3d, 0x3e3d, 0x3e3d, 0x3e45, 0x3e45, 0x3e3d, 0x3e45, 0x3e3d, 0x3e45, 0x3e45, 0x3e3d, 0x3e45, 0x3e3d, 0x3e3d, 0x3e3d, 0x3e3d, 0x3e3d, 0x3e3d, 0x000, 0x000, 0x000, 0x000, 0x000, 0x3e15, 0x3e15, 0x3e15, 0x3e1d, 0x3e1d, 0x3e1d, 0x3e1d, 0x3e1d, 0x3e1d, 0x3e1d, 0x3e25, 0x3e25, 0x3e25, 0x3e25, 0x3e1d, 0x3e1d, 0x3e15, 0x3e25, 0xbdf9, 0xbdf9, 0x3e05, 0x3e25, 0x3e25, 0x3e2d, 0x3e2d, 0x3e2d, 0x3e35, 0xbd11, 0xbe9f, 0xbeaf, 0xbebb, 0xbeaf, 0xbf02, 0xbf1a, 0xbf4a, 0xbf2a, 0xbf0a, 0xbf16, 0xbf1c, 0xbf1e, 0xbf1e, 0xbf24, 0xbf24, 0xbf24, 0xbf2a, 0xbf32, 0xbf3a, 0xbf3c, 0xbf3c, 0xbf3a, 0xbf36, 0xbf06, 0xbe3d, 0xbdd9, 0xbe25, 0xbe75, 0xbe87, 0xbec7, 0xbeff, 0xbf18, 0xbf1a, 0xbf16, 0xbef7, 0xbed3, 0xbebf, 0xbe9f, 0xbeab, 0xbefb, 0xbf20, 0xbf1e, 0xbef3, 0xbc41, 0x3e3d, 0x3e3d, 0x3e45, 0x3e45, 0x3e3d, 0x3e3d, 0x3e45, 0x3e3d, 0x3e3d, 0x3e4d, 0x3e45, 0x3e3d, 0x3e3d, 0x3e3d, 0x3e45, 0x3e45, 0x3e3d, 0x3e45, 0x3e45, 0x3e3d, 0x3e3d, 0x3e3d, 0x3e3d, 0x3e3d, 0x000, 0x000, 0x000, 0x000, 0x000, 0x3e1d, 0x3e15, 0x3e1d, 0x3e1d, 0x3e15, 0x3e25, 0x3e15, 0x3e1d, 0x3e1d, 0x3e1d, 0x3e1d, 0x3e1d, 0x3e25, 0x3e1d, 0x3e1d, 0x3e25, 0x3e15, 0x3e25, 0x3ca1, 0xbec7, 0xbda9, 0x3e25, 0x3e2d, 0x3e2d, 0x3e2d, 0x3e2d, 0x3e05, 0xbe8f, 0xbeaf, 0xbeb7, 0xbe9b, 0xbe7d, 0xbf02, 0xbf2a, 0xbf38, 0xbf0e, 0xbf02, 0xbf12, 0xbf16, 0xbf18, 0xbf1a, 0xbf1c, 0xbf22, 0xbf26, 0xbf26, 0xbf2e, 0xbf3a, 0xbf3c, 0xbf3a, 0xbf3c, 0xbf3c, 0xbf20, 0xbebf, 0xbe55, 0xbe5d, 0xbe5d, 0xbe65, 0xbe9f, 0xbecb, 0xbf04, 0xbf1a, 0xbf18, 0xbf04, 0xbed7, 0xbeb3, 0xbe9f, 0xbeab, 0xbee3, 0xbf0e, 0xbf28, 0xbf16, 0xbdc9, 0x3e45, 0x3e45, 0x3e3d, 0x3e3d, 0x3e45, 0x3e3d, 0x3e3d, 0x3e3d, 0x3e3d, 0x3e45, 0x3e45, 0x3e3d, 0x3e45, 0x3e3d, 0x3e45, 0x3e45, 0x3e45, 0x3e3d, 0x3e45, 0x3e3d, 0x3e3d, 0x3e3d, 0x3e3d, 0x3e45, 0x000, 0x000, 0x000, 0x000, 0x000, 0x3e15, 0x3e15, 0x3e15, 0x3e1d, 0x3e15, 0x3e1d, 0x3e1d, 0x3e1d, 0x3e1d, 0x3e0d, 0x3e25, 0x3e1d, 0x3e1d, 0x3e1d, 0x3e1d, 0x3e25, 0x3e25, 0x3e25, 0x3df9, 0xbeab, 0xbedf, 0x3ce1, 0x3e2d, 0x3e2d, 0x3e2d, 0x3e2d, 0xbde9, 0xbedb, 0xbea3, 0xbebf, 0xbe7d, 0xbe65, 0xbf0a, 0xbf40, 0xbf22, 0xbee3, 0xbf02, 0xbf0e, 0xbf14, 0xbf14, 0xbf14, 0xbf1c, 0xbf20, 0xbf22, 0xbf26, 0xbf2c, 0xbf36, 0xbf3a, 0xbf3a, 0xbf3e, 0xbf3e, 0xbf2c, 0xbf08, 0xbebb, 0xbe75, 0xbe65, 0xbe55, 0xbe87, 0xbea7, 0xbedf, 0xbf16, 0xbeff, 0xbefb, 0xbee7, 0xbeb3, 0xbe8f, 0xbe9f, 0xbed7, 0xbeff, 0xbf0a, 0xbf20, 0xbe83, 0x3e15, 0x3e35, 0x3e3d, 0x3e3d, 0x3e3d, 0x3e3d, 0x3e3d, 0x3e3d, 0x3e35, 0x3e3d, 0x3e3d, 0x3e3d, 0x3e45, 0x3e3d, 0x3e45, 0x3e45, 0x3e3d, 0x3e3d, 0x3e3d, 0x3e3d, 0x3e3d, 0x3e3d, 0x3e35, 0x3e45, 0x000, 0x000, 0x000, 0x000, 0x000, 0x3e0d, 0x3e0d, 0x3e1d, 0x3e1d, 0x3e1d, 0x3e1d, 0x3e1d, 0x3e1d, 0x3e1d, 0x3e1d, 0x3e25, 0x3e25, 0x3e1d, 0x3e25, 0x3e25, 0x3e2d, 0x3e25, 0x3e1d, 0x3e1d, 0xbe05, 0xbf1c, 0xbe93, 0x3df9, 0x3e2d, 0x3e35, 0x3d89, 0xbee3, 0xbed7, 0xbe9f, 0xbebf, 0xbe8b, 0xbee7, 0xbf12, 0xbf46, 0xbf0e, 0xbecf, 0xbef7, 0xbf10, 0xbf14, 0xbf0c, 0xbf0c, 0xbf1a, 0xbf20, 0xbf28, 0xbf2a, 0xbf2c, 0xbf36, 0xbf38, 0xbf3a, 0xbf3c, 0xbf3e, 0xbf34, 0xbf10, 0xbed7, 0xbe83, 0xbe6d, 0xbe65, 0xbe75, 0xbe8b, 0xbecb, 0xbef7, 0xbedf, 0xbf0a, 0xbeef, 0xbea3, 0xbe7d, 0xbe9b, 0xbecb, 0xbf06, 0xbf08, 0xbf16, 0xbeef, 0xbca1, 0x3e35, 0x3e45, 0x3e35, 0x3e3d, 0x3e35, 0x3e3d, 0x3e35, 0xbdf9, 0xbe93, 0x3d99, 0x3e3d, 0x3e3d, 0x3e3d, 0x3e45, 0x3e3d, 0x3e3d, 0x3e45, 0x3e35, 0x3e35, 0x3e3d, 0x3e3d, 0x3e3d, 0x3e3d, 0x000, 0x000, 0x000, 0x000, 0x000, 0x3e05, 0x3e15, 0x3e0d, 0x3e15, 0x3e1d, 0x3e1d, 0x3e1d, 0x3e1d, 0x3e1d, 0x3e1d, 0x3e25, 0x3e25, 0x3e1d, 0x3e1d, 0x3e25, 0x3e25, 0x3e25, 0x3e1d, 0x3e15, 0x3d31, 0xbf02, 0xbf16, 0xbd99, 0x3e25, 0x3e2d, 0xbe65, 0xbeff, 0xbed3, 0xbeab, 0xbecf, 0xbef3, 0xbf2c, 0xbf1e, 0xbf46, 0xbf06, 0xbee7, 0xbf08, 0xbf16, 0xbf14, 0xbf14, 0xbf14, 0xbf18, 0xbf1e, 0xbf28, 0xbf2a, 0xbf24, 0xbf26, 0xbf30, 0xbf32, 0xbf32, 0xbf34, 0xbf30, 0xbf20, 0xbee3, 0xbe8b, 0xbe55, 0xbe5d, 0xbe65, 0xbe87, 0xbeef, 0xbf10, 0xbf10, 0xbf0e, 0xbedf, 0xbe97, 0xbe6d, 0xbe8f, 0xbeaf, 0xbef3, 0xbf24, 0xbf20, 0xbf10, 0xbe15, 0x3e2d, 0x3e3d, 0x3e35, 0x3e35, 0x3e3d, 0x3e3d, 0x3d31, 0xbf0c, 0xbe35, 0xbda9, 0x3e25, 0x3e3d, 0x3e3d, 0x3e35, 0x3e35, 0x3e3d, 0x3e45, 0x3e3d, 0x3e35, 0x3e3d, 0x3e3d, 0x3e35, 0x3e35, 0x000, 0x000, 0x000, 0x000, 0x000, 0xbde9, 0xbd31, 0xbca1, 0x3ca1, 0x3d89, 0x3de9, 0x3e1d, 0x3e1d, 0x3e15, 0x3e1d, 0x3e25, 0x3e15, 0x3e1d, 0x3e1d, 0x3e25, 0x3e25, 0x3e1d, 0x3e1d, 0x3e25, 0x3e0d, 0xbe97, 0xbf2a, 0xbed7, 0x3d71, 0x3da9, 0xbee3, 0xbef7, 0xbed3, 0xbeaf, 0xbf0e, 0xbf2c, 0xbf18, 0xbf28, 0xbf38, 0xbf06, 0xbef7, 0xbf06, 0xbf0c, 0xbf08, 0xbf0a, 0xbf12, 0xbf14, 0xbf14, 0xbf1c, 0xbf18, 0xbf1c, 0xbf22, 0xbf2a, 0xbf2a, 0xbf2c, 0xbf2e, 0xbf2a, 0xbf2a, 0xbf08, 0xbe83, 0xbe55, 0xbe65, 0xbe65, 0xbea3, 0xbeef, 0xbf0a, 0xbeff, 0xbf0a, 0xbedb, 0xbe8f, 0xbe6d, 0xbe93, 0xbeb7, 0xbedf, 0xbf10, 0xbf1c, 0xbf10, 0xbea3, 0x3d99, 0x3e35, 0x3e45, 0x3e3d, 0x3e3d, 0x3e3d, 0xbe65, 0xbf16, 0xbd11, 0x3e2d, 0x3e35, 0x3e3d, 0x3e3d, 0x3e3d, 0x3e1d, 0xbd11, 0xbe87, 0xbeaf, 0xbe8f, 0xbe25, 0xbdc9, 0x3d71, 0x3e25, 0x000, 0x000, 0x000, 0x000, 0x000, 0xbed3, 0xbecb, 0xbecb, 0xbeb7, 0xbe97, 0xbe45, 0xbd51, 0x3d71, 0x3dd9, 0x3e0d, 0x3e15, 0x3e15, 0x3e15, 0x3e1d, 0x3e25, 0x3e2d, 0x3e1d, 0x3e1d, 0x3e1d, 0x3e25, 0xbdd9, 0xbf1c, 0xbf30, 0xbe83, 0xbe15, 0xbefb, 0xbef3, 0xbedb, 0xbeb7, 0xbf1e, 0xbf20, 0xbef7, 0xbf3c, 0xbf2a, 0xbef7, 0xbee3, 0xbf02, 0xbf0e, 0xbf08, 0xbf0a, 0xbf0e, 0xbf0e, 0xbf14, 0xbf0c, 0xbf0a, 0xbf1a, 0xbf20, 0xbf26, 0xbf30, 0xbf2c, 0xbf2c, 0xbf28, 0xbf1e, 0xbf18, 0xbebf, 0xbe35, 0xbe7d, 0xbe6d, 0xbeb3, 0xbe97, 0xbec3, 0xbef7, 0xbefb, 0xbeeb, 0xbedf, 0xbf0c, 0xbf24, 0xbf2c, 0xbf2e, 0xbf2e, 0xbf26, 0xbf28, 0xbf2e, 0xbf18, 0xbe83, 0x3de9, 0x3e35, 0x3e35, 0x3de9, 0xbf04, 0xbf2e, 0xbe97, 0x3e3d, 0x3e3d, 0x3e3d, 0x3e3d, 0x3e3d, 0x3e0d, 0xbe45, 0xbf0c, 0xbf2c, 0xbf26, 0xbf1c, 0xbf22, 0xbeef, 0xbe15, 0x000, 0x000, 0x000, 0x000, 0x000, 0xbee7, 0xbedf, 0xbeef, 0xbeef, 0xbedf, 0xbecf, 0xbeab, 0xbe8b, 0xbe45, 0xbdd9, 0xbd11, 0x3d11, 0x3da9, 0x3df9, 0x3e05, 0x3e1d, 0x3e25, 0x3e25, 0x3e15, 0x3e25, 0x3d31, 0xbefb, 0xbf36, 0xbf24, 0xbeeb, 0xbefb, 0xbef3, 0xbedb, 0xbee7, 0xbf12, 0xbefb, 0xbef7, 0xbf42, 0xbf1a, 0xbed3, 0xbedb, 0xbf06, 0xbf10, 0xbf0e, 0xbf0e, 0xbf0e, 0xbf10, 0xbf18, 0xbf12, 0xbf10, 0xbf1a, 0xbf20, 0xbf28, 0xbf2e, 0xbf30, 0xbf2c, 0xbf26, 0xbf0c, 0xbf18, 0xbf02, 0xbea7, 0xbe7d, 0xbeb7, 0xbedb, 0xbe1d, 0xbe87, 0xbedb, 0xbef7, 0xbf0c, 0xbf2a, 0xbf24, 0xbf1a, 0xbf16, 0xbf1a, 0xbf22, 0xbf28, 0xbf34, 0xbf44, 0xbf48, 0xbf42, 0xbf08, 0xbed3, 0xbe4d, 0xbde9, 0xbeff, 0xbf18, 0xbe65, 0x3de9, 0x3df9, 0x3df9, 0x3b81, 0x3ce1, 0x3d31, 0xbd11, 0xbe75, 0xbef3, 0xbf08, 0xbf1a, 0xbf2e, 0xbf12, 0xbeb7, 0x000, 0x000, 0x000, 0x000, 0x000, 0xbe93, 0xbec3, 0xbee3, 0xbef3, 0xbeeb, 0xbee7, 0xbedf, 0xbedb, 0xbed7, 0xbec7, 0xbeb3, 0xbe9f, 0xbe8b, 0xbe6d, 0xbe3d, 0xbd99, 0x3d31, 0x3dd9, 0x3df9, 0x3e1d, 0x3e05, 0xbe65, 0xbf2e, 0xbf3c, 0xbf0a, 0xbef3, 0xbeff, 0xbebb, 0xbf04, 0xbf04, 0xbec3, 0xbf08, 0xbf42, 0xbf0a, 0xbec7, 0xbedf, 0xbf02, 0xbf0c, 0xbf0c, 0xbf0e, 0xbf0e, 0xbf14, 0xbf16, 0xbf14, 0xbf14, 0xbf1a, 0xbf1e, 0xbf20, 0xbf24, 0xbf2a, 0xbf2e, 0xbf24, 0xbf06, 0xbf08, 0xbefb, 0xbf0c, 0xbef7, 0xbf10, 0xbed3, 0xbeab, 0xbeb3, 0xbecf, 0xbee3, 0xbec7, 0xbe7d, 0xbe7d, 0xbebb, 0xbecf, 0xbedb, 0xbee3, 0xbeef, 0xbeff, 0xbf12, 0xbf38, 0xbf36, 0xbf44, 0xbf46, 0xbf34, 0xbf26, 0xbf08, 0xbee3, 0xbecb, 0xbeaf, 0xbeaf, 0xbe9f, 0xbedf, 0xbee7, 0xbebf, 0xbed3, 0xbeeb, 0xbf06, 0xbf0c, 0xbed3, 0xbec7, 0xbed3, 0xbed3, 0x000, 0x000, 0x000, 0x000, 0x000, 0xbdd9, 0xbe65, 0xbe8f, 0xbebb, 0xbec7, 0xbecf, 0xbedf, 0xbee7, 0xbeef, 0xbeef, 0xbee7, 0xbee7, 0xbef7, 0xbef7, 0xbec7, 0xbeaf, 0xbe8b, 0xbe7d, 0xbe55, 0xbe25, 0xbe15, 0xbe93, 0xbf1e, 0xbf1e, 0xbf0a, 0xbeeb, 0xbf02, 0xbea3, 0xbf06, 0xbed3, 0xbebb, 0xbf18, 0xbf36, 0xbf02, 0xbed3, 0xbeeb, 0xbf06, 0xbf0c, 0xbf06, 0xbf04, 0xbf08, 0xbf0c, 0xbf10, 0xbf10, 0xbf10, 0xbf16, 0xbf1c, 0xbf1c, 0xbf24, 0xbf28, 0xbf26, 0xbf20, 0xbf0c, 0xbeeb, 0xbf10, 0xbf28, 0xbf3a, 0xbf2c, 0xbf22, 0xbed7, 0xbecf, 0xbecf, 0xbedb, 0xbebf, 0xbe1d, 0xbe2d, 0xbe7d, 0xbe83, 0xbe9f, 0xbeb7, 0xbed3, 0xbefb, 0xbefb, 0xbf02, 0xbf28, 0xbf28, 0xbf34, 0xbf40, 0xbf40, 0xbf40, 0xbf36, 0xbf30, 0xbf2e, 0xbf2c, 0xbf2a, 0xbf16, 0xbf24, 0xbf2c, 0xbf2a, 0xbf2e, 0xbf30, 0xbf2c, 0xbf1e, 0xbf0e, 0xbf20, 0xbf28, 0x000, 0x000, 0x000, 0x000, 0x000, 0xbd89, 0xbda9, 0xbdd9, 0xbe45, 0xbe4d, 0xbe65, 0xbe7d, 0xbeb7, 0xbeeb, 0xbefb, 0xbeff, 0xbf06, 0xbf0a, 0xbf02, 0xbee3, 0xbedf, 0xbed3, 0xbedf, 0xbee7, 0xbeef, 0xbeff, 0xbf10, 0xbf0c, 0xbf06, 0xbf0a, 0xbef3, 0xbee3, 0xbebf, 0xbeef, 0xbeab, 0xbec7, 0xbf1e, 0xbf28, 0xbee3, 0xbebf, 0xbee7, 0xbf02, 0xbeff, 0xbef7, 0xbf02, 0xbf02, 0xbf04, 0xbf06, 0xbf06, 0xbf0c, 0xbf1a, 0xbf1a, 0xbf1c, 0xbf22, 0xbf26, 0xbf26, 0xbf20, 0xbf08, 0xbec7, 0xbeff, 0xbf12, 0xbf3c, 0xbf4e, 0xbf48, 0xbf40, 0xbf32, 0xbeeb, 0xbedb, 0xbebb, 0xbe87, 0xbe97, 0xbeb7, 0xbedf, 0xbeff, 0xbf0e, 0xbf1e, 0xbf36, 0xbf3a, 0xbf32, 0xbf30, 0xbf2c, 0xbf16, 0xbf22, 0xbf30, 0xbf38, 0xbf38, 0xbf3c, 0xbf3c, 0xbf3c, 0xbf36, 0xbf20, 0xbf2c, 0xbf3c, 0xbf44, 0xbf3e, 0xbf40, 0xbf3c, 0xbf3c, 0xbf34, 0xbf3c, 0xbf3e, 0x000, 0x000, 0x000, 0x000, 0x000, 0x3d11, 0xbb81, 0xbd71, 0xbdc9, 0xbda9, 0xbd71, 0xbd89, 0xbe35, 0xbe9f, 0xbedf, 0xbf0e, 0xbf10, 0xbef7, 0xbeef, 0xbee7, 0xbee7, 0xbee7, 0xbeeb, 0xbeef, 0xbef3, 0xbef3, 0xbf06, 0xbeff, 0xbf06, 0xbf02, 0xbefb, 0xbec3, 0xbed7, 0xbec3, 0xbe9b, 0xbedb, 0xbf24, 0xbf22, 0xbea7, 0xbea7, 0xbedf, 0xbefb, 0xbefb, 0xbeef, 0xbef3, 0xbefb, 0xbeff, 0xbf08, 0xbf0a, 0xbf10, 0xbf16, 0xbf18, 0xbf1c, 0xbf24, 0xbf28, 0xbf28, 0xbf22, 0xbf04, 0xbed3, 0xbefb, 0xbf22, 0xbf3a, 0xbf48, 0xbf3e, 0xbf3e, 0xbf2c, 0xbf0a, 0xbf06, 0xbf04, 0xbf0e, 0xbf1c, 0xbf22, 0xbf26, 0xbf30, 0xbf36, 0xbf38, 0xbf36, 0xbf34, 0xbf22, 0xbf08, 0xbf02, 0xbefb, 0xbeeb, 0xbed7, 0xbf04, 0xbf22, 0xbf2e, 0xbf24, 0xbf14, 0xbf1a, 0xbf06, 0xbf20, 0xbf34, 0xbf3a, 0xbf30, 0xbf36, 0xbf32, 0xbf38, 0xbf40, 0xbf3c, 0xbf30, 0x000, 0x000, 0x000, 0x000, 0x000, 0x3e0d, 0x3de9, 0x3d99, 0x3d51, 0x3d71, 0x3d51, 0x3d11, 0xbd11, 0xbde9, 0xbe97, 0xbf0e, 0xbf24, 0xbefb, 0xbeb7, 0xbe97, 0xbe93, 0xbe8b, 0xbe9b, 0xbec7, 0xbecb, 0xbecf, 0xbefb, 0xbf02, 0xbf0c, 0xbee3, 0xbee7, 0xbec3, 0xbed7, 0xbe9b, 0xbebb, 0xbef7, 0xbf22, 0xbf12, 0xbea7, 0xbec7, 0xbee3, 0xbef3, 0xbeef, 0xbee7, 0xbee3, 0xbeeb, 0xbef7, 0xbf04, 0xbf0a, 0xbf10, 0xbf12, 0xbf14, 0xbf1a, 0xbf1e, 0xbf20, 0xbf26, 0xbf22, 0xbf0a, 0xbee3, 0xbef3, 0xbf20, 0xbf28, 0xbf24, 0xbf1c, 0xbf1e, 0xbf22, 0xbf28, 0xbf2e, 0xbf30, 0xbf36, 0xbf32, 0xbf2e, 0xbf30, 0xbf2e, 0xbf2c, 0xbf22, 0xbf18, 0xbf08, 0xbed7, 0xbe9f, 0xbe83, 0xbe75, 0xbe7d, 0xbe55, 0xbe93, 0xbf04, 0xbf04, 0xbf20, 0xbf24, 0xbeef, 0xbeeb, 0xbefb, 0xbf0a, 0xbf20, 0xbf02, 0xbf10, 0xbf0c, 0xbf18, 0xbf28, 0xbf24, 0xbf02, 0x000, 0x000, 0x000, 0x000, 0x000, 0x3e15, 0x3e0d, 0x3e0d, 0x3e0d, 0x3e0d, 0x3e0d, 0x3de9, 0x3ce1, 0xbe65, 0xbeff, 0xbf32, 0xbf3e, 0xbefb, 0xbe4d, 0xbe05, 0xbe2d, 0xbdc9, 0xbdb9, 0xbe35, 0xbe4d, 0xbe6d, 0xbeab, 0xbeeb, 0xbeef, 0xbed3, 0xbec3, 0xbec7, 0xbeaf, 0xbe65, 0xbebb, 0xbf06, 0xbf28, 0xbf0c, 0xbecb, 0xbec7, 0xbecf, 0xbecf, 0xbed7, 0xbedb, 0xbedf, 0xbee7, 0xbef7, 0xbf08, 0xbf0a, 0xbf04, 0xbf06, 0xbf0e, 0xbf08, 0xbf08, 0xbf02, 0xbf0e, 0xbf0e, 0xbf0c, 0xbf08, 0xbf14, 0xbf1e, 0xbf20, 0xbf1e, 0xbf16, 0xbf1c, 0xbf36, 0xbf36, 0xbf2a, 0xbf32, 0xbf32, 0xbf22, 0xbf08, 0xbeef, 0xbef3, 0xbedf, 0xbebb, 0xbe93, 0xbe45, 0xbda9, 0x3b81, 0xbc41, 0xbd99, 0xbd31, 0x3c41, 0xbe1d, 0xbf04, 0xbecb, 0xbf0e, 0xbf18, 0xbefb, 0xbed3, 0xbec3, 0xbed3, 0xbf06, 0xbe45, 0xbe8f, 0xbe83, 0xbecf, 0xbed3, 0xbeb3, 0xbe4d, 0x000, 0x000, 0x000, 0x000, 0x000, 0x3e15, 0x3e0d, 0x3e15, 0x3e0d, 0x3de9, 0x3c41, 0xbe5d, 0xbee7, 0xbf1c, 0xbf34, 0xbf3c, 0xbf36, 0xbedf, 0xbe0d, 0xbd51, 0xbce1, 0xbc41, 0xbca1, 0xbce1, 0xbd51, 0xbd31, 0xbdf9, 0xbed3, 0xbed3, 0xbecf, 0xbebb, 0xbecf, 0xbe93, 0xbe83, 0xbed3, 0xbf12, 0xbf2e, 0xbf08, 0xbed3, 0xbeab, 0xbeb7, 0xbec3, 0xbebf, 0xbec3, 0xbedf, 0xbee3, 0xbeef, 0xbeff, 0xbeff, 0xbefb, 0xbefb, 0xbf02, 0xbeff, 0xbf06, 0xbf12, 0xbf1a, 0xbf28, 0xbf2c, 0xbf2e, 0xbf32, 0xbf34, 0xbf2a, 0xbf22, 0xbf1c, 0xbf1e, 0xbf38, 0xbf3c, 0xbf12, 0xbf0e, 0xbef7, 0xbedb, 0xbe97, 0xbe55, 0xbe15, 0xbdc9, 0xbd89, 0xbce1, 0xbd31, 0x3d31, 0xbc41, 0xbe9f, 0xbebb, 0xbe97, 0xbef3, 0xbf08, 0xbf12, 0xbf1e, 0xbee7, 0xbeeb, 0xbeeb, 0xbf0a, 0xbf0e, 0xbeeb, 0xbee7, 0xbd89, 0xbca1, 0xbdc9, 0xbe05, 0xbe3d, 0xbdf9, 0xbce1, 0x000, 0x000, 0x000, 0x000, 0x000, 0x3e0d, 0x3e05, 0x3d89, 0xbd31, 0xbe83, 0xbeff, 0xbf18, 0xbf16, 0xbf02, 0xbeff, 0xbee7, 0xbe8b, 0xbc41, 0x3da9, 0x3dd9, 0x3dd9, 0x3db9, 0x3d71, 0x3d71, 0x3c41, 0xbb81, 0xbdc9, 0xbeb7, 0xbec3, 0xbec7, 0xbec7, 0xbecf, 0xbe8b, 0xbe9b, 0xbef7, 0xbeef, 0xbf08, 0xbee3, 0xbec7, 0xbeb7, 0xbeb3, 0xbebf, 0xbed3, 0xbee3, 0xbef3, 0xbeef, 0xbeff, 0xbf0a, 0xbf10, 0xbf16, 0xbf16, 0xbf1c, 0xbf16, 0xbf14, 0xbf12, 0xbf10, 0xbf3a, 0xbf40, 0xbf3a, 0xbf2a, 0xbf18, 0xbf02, 0xbeeb, 0xbed3, 0xbf02, 0xbf2a, 0xbf16, 0xbeab, 0xbe45, 0xbdd9, 0x3b81, 0xbb81, 0xbce1, 0xbdb9, 0xbe2d, 0xbebb, 0xbeef, 0xbeef, 0x3d11, 0x3d31, 0xbedf, 0xbf2a, 0xbef3, 0xbf02, 0xbef7, 0xbf0e, 0xbf2e, 0xbf24, 0xbf0c, 0xbebb, 0xbf26, 0xbf2e, 0xbf18, 0xbe0d, 0x3d71, 0x3d71, 0x3c41, 0x3ca1, 0x3dc9, 0x3e1d, 0x3e35, 0x000, 0x000, 0x000, 0x000, 0x000, 0x3da9, 0xbde9, 0xbe8b, 0xbebb, 0xbeb3, 0xbe97, 0xbe4d, 0xbde9, 0xbb81, 0x3d31, 0x3d99, 0x3e05, 0x3e15, 0x3e1d, 0x3e1d, 0x3e15, 0x3e15, 0x3e1d, 0x3e1d, 0x3e05, 0x3de9, 0xbd71, 0xbeb7, 0xbed3, 0xbecb, 0xbed7, 0xbef3, 0xbebb, 0xbec3, 0xbf0c, 0xbedf, 0xbedf, 0xbef3, 0xbeff, 0xbef3, 0xbef3, 0xbf06, 0xbf12, 0xbf12, 0xbf1a, 0xbf1c, 0xbf1c, 0xbf1c, 0xbf1c, 0xbf1c, 0xbf1a, 0xbf0a, 0xbef3, 0xbee7, 0xbf06, 0xbedf, 0xbf26, 0xbf38, 0xbf1c, 0xbeff, 0xbeaf, 0xbe93, 0xbe65, 0xbe55, 0xbed3, 0xbef3, 0xbed7, 0xbe5d, 0xbd31, 0xbd99, 0xbe05, 0xbe75, 0xbe7d, 0xbeb7, 0xbec3, 0xbf08, 0xbf06, 0xbecb, 0x3db9, 0x3e15, 0xbe6d, 0xbf12, 0xbf30, 0xbeeb, 0xbed7, 0xbeef, 0xbedb, 0xbf04, 0xbecf, 0xbebf, 0xbedb, 0xbedb, 0xbce1, 0x3e2d, 0x3e0d, 0x3e1d, 0x3e35, 0x3e35, 0x3e35, 0x3e35, 0x3e35, 0x000, 0x000, 0x000, 0x000, 0x000, 0x3de9, 0x3d89, 0x3d51, 0x3d51, 0x3d99, 0x3de9, 0x3e05, 0x3e15, 0x3e1d, 0x3e0d, 0x3e0d, 0x3e1d, 0x3e1d, 0x3e1d, 0x3e1d, 0x3e15, 0x3e1d, 0x3e15, 0x3e1d, 0x3e25, 0x3e1d, 0xbde9, 0xbed7, 0xbedf, 0xbec7, 0xbed3, 0xbef3, 0xbee3, 0xbf0c, 0xbf12, 0xbf0e, 0xbf12, 0xbf18, 0xbf18, 0xbf16, 0xbf14, 0xbf14, 0xbf12, 0xbf0e, 0xbf0c, 0xbf02, 0xbef7, 0xbf02, 0xbee3, 0xbecf, 0xbeab, 0xbe65, 0xbe25, 0xbe6d, 0xbf06, 0xbefb, 0xbed7, 0xbee7, 0xbe8b, 0xbde9, 0xbe5d, 0xbe6d, 0xbe35, 0xbe65, 0xbe97, 0xbeaf, 0xbee7, 0xbe87, 0xbe35, 0xbe55, 0xbeab, 0xbe83, 0xbe97, 0xbecb, 0xbeeb, 0xbf08, 0xbf10, 0xbe9b, 0x3e0d, 0x3e3d, 0xbb81, 0xbed7, 0xbf38, 0xbf1a, 0xbe97, 0xbeb3, 0xbecf, 0xbebf, 0xbea3, 0x3b81, 0x3dc9, 0x3df9, 0x3e35, 0x3e35, 0x3e35, 0x3e35, 0x3e35, 0x3e35, 0x3e35, 0x3e35, 0x3e35, 0x000, 0x000, 0x000, 0x000, 0x000, 0x3e0d, 0x3e0d, 0x3e05, 0x3e0d, 0x3e0d, 0x3e0d, 0x3e0d, 0x3e15, 0x3e15, 0x3e15, 0x3e15, 0x3e1d, 0x3e15, 0x3e15, 0x3e15, 0x3e15, 0x3e15, 0x3e15, 0x3e1d, 0x3e1d, 0x3e1d, 0xbe75, 0xbeff, 0xbeeb, 0xbecb, 0xbecb, 0xbeeb, 0xbf04, 0xbf1c, 0xbf18, 0xbf10, 0xbf0e, 0xbf16, 0xbf06, 0xbef7, 0xbed3, 0xbec7, 0xbeaf, 0xbe83, 0xbe35, 0xbdd9, 0xbd99, 0xbd89, 0xbb81, 0xbca1, 0xbc41, 0x3ca1, 0x3d31, 0x3ce1, 0xbe8f, 0xbe9f, 0xbe8b, 0xbe65, 0xbe65, 0xbea7, 0xbee3, 0xbebb, 0xbe97, 0xbe9b, 0xbeaf, 0xbea7, 0xbec7, 0xbecf, 0xbe87, 0xbe75, 0xbe8f, 0xbe6d, 0xbeaf, 0xbed7, 0xbeeb, 0xbeff, 0xbef7, 0xbe1d, 0x3e35, 0x3e3d, 0x3e15, 0xbe6d, 0xbf14, 0xbf3e, 0xbef7, 0xbd71, 0x3d71, 0x3e05, 0x3e05, 0x3e35, 0x3e35, 0x3e35, 0x3e35, 0x3e35, 0x3e2d, 0x3e35, 0x3e35, 0x3e35, 0x3e35, 0x3e35, 0x3e35, 0x000, 0x000, 0x000, 0x000, 0x000, 0x3e0d, 0x3e05, 0x3e05, 0x3e0d, 0x3e0d, 0x3e15, 0x3e15, 0x3e15, 0x3e15, 0x3e15, 0x3e1d, 0x3e0d, 0x3e0d, 0x3e15, 0x3e15, 0x3e1d, 0x3e1d, 0x3e1d, 0x3e1d, 0x3e1d, 0x3dc9, 0xbe8b, 0xbedb, 0xbee7, 0xbeeb, 0xbf02, 0xbf14, 0xbf16, 0xbf16, 0xbf0a, 0xbee7, 0xbeaf, 0xbebb, 0xbe65, 0xbe05, 0xbca1, 0x3d51, 0xbc41, 0x3d51, 0x3d31, 0x3d51, 0x3b81, 0xbce1, 0xbda9, 0xbe2d, 0xbe87, 0xbeab, 0xbec7, 0xbecf, 0xbecf, 0xbecf, 0xbef3, 0xbef3, 0xbee3, 0xbecb, 0xbe9f, 0xbe35, 0xbe6d, 0xbeb7, 0xbea3, 0xbe65, 0xbedf, 0xbeef, 0xbec3, 0xbeaf, 0xbe55, 0xbe75, 0xbe9b, 0xbec7, 0xbee7, 0xbedf, 0xbec7, 0xbc41, 0x3e3d, 0x3e3d, 0x3e35, 0x3d71, 0xbeab, 0xbf12, 0xbf2a, 0xbde9, 0x3e1d, 0x3e35, 0x3e35, 0x3e2d, 0x3e35, 0x3e3d, 0x3e35, 0x3e35, 0x3e35, 0x3e35, 0x3e2d, 0x3e35, 0x3e2d, 0x3e35, 0x3e35, 0x000, 0x000, 0x000, 0x000, 0x000, 0x3e0d, 0x3e05, 0x3e05, 0x3e0d, 0x3e1d, 0x3e15, 0x3e15, 0x3e15, 0x3e15, 0x3e15, 0x3e15, 0x3e15, 0x3e0d, 0x3e0d, 0x3e05, 0x3de9, 0x3da9, 0xbc41, 0xbe15, 0xbe8b, 0xbebf, 0xbedf, 0xbefb, 0xbf0c, 0xbf0a, 0xbf12, 0xbf0a, 0xbeef, 0xbebb, 0xbe8b, 0xbe25, 0xbde9, 0xbda9, 0xbd71, 0xbce1, 0xbd71, 0xbdb9, 0xbe0d, 0xbe65, 0xbea3, 0xbebb, 0xbeb3, 0xbeab, 0xbec3, 0xbed7, 0xbee3, 0xbeef, 0xbef3, 0xbeeb, 0xbef7, 0xbef7, 0xbf04, 0xbf02, 0xbeeb, 0xbecb, 0xbe87, 0xbe65, 0xbe8f, 0xbeaf, 0xbe9b, 0xbe8f, 0xbee3, 0xbf12, 0xbf14, 0xbe8b, 0xbe5d, 0xbe93, 0xbebb, 0xbed3, 0xbf18, 0xbef3, 0xbeb3, 0x3d71, 0x3e35, 0x3e35, 0x3e35, 0x3e2d, 0xbd71, 0xbec3, 0xbf1a, 0xbf1a, 0xbdf9, 0x3e25, 0x3e2d, 0x3e2d, 0x3e35, 0x3e35, 0x3e35, 0x3e35, 0x3e3d, 0x3e35, 0x3e2d, 0x3e35, 0x3e2d, 0x3e2d, 0x3e35, 0x000, 0x000, 0x000, 0x000, 0x000, 0x3e15, 0x3e0d, 0x3e05, 0x3e05, 0x3e05, 0x3e15, 0x3e1d, 0x3e15, 0x3df9, 0x3dc9, 0x3ce1, 0xbd89, 0xbe0d, 0xbe55, 0xbe55, 0xbe97, 0xbeb7, 0xbef7, 0xbf08, 0xbf0a, 0xbf0e, 0xbf18, 0xbf16, 0xbf0c, 0xbeef, 0xbed7, 0xbe8b, 0xbe45, 0xbdc9, 0xbd11, 0xbdc9, 0xbe15, 0xbdc9, 0xbdf9, 0xbe5d, 0xbe97, 0xbea3, 0xbe93, 0xbe97, 0xbeaf, 0xbeb7, 0xbea3, 0xbeaf, 0xbec3, 0xbebb, 0xbecb, 0xbedb, 0xbee3, 0xbef3, 0xbee3, 0xbeeb, 0xbedf, 0xbee7, 0xbf08, 0xbef3, 0xbec3, 0xbe9b, 0xbe83, 0xbe87, 0xbe7d, 0xbea3, 0xbef3, 0xbf0c, 0xbedf, 0xbe65, 0xbe75, 0xbe97, 0xbeb7, 0xbee7, 0xbf38, 0xbf08, 0xbe65, 0x3de9, 0x3e25, 0x3e2d, 0x3e1d, 0x3e1d, 0x3e15, 0xbce1, 0xbecb, 0xbf36, 0xbf16, 0xbe4d, 0xbdc9, 0x3b81, 0x3dc9, 0x3e15, 0x3e35, 0x3e3d, 0x3e35, 0x3e35, 0x3e35, 0x3e35, 0x3e35, 0x3e1d, 0x3da9, 0x000, 0x000, 0x000, 0x000, 0x000, 0x3de9, 0x3d99, 0x3d31, 0x3d31, 0x3ca1, 0xbca1, 0xbdb9, 0xbe05, 0xbe7d, 0xbea3, 0xbedf, 0xbef7, 0xbefb, 0xbeeb, 0xbefb, 0xbf08, 0xbf12, 0xbf16, 0xbf16, 0xbf0a, 0xbeff, 0xbf02, 0xbedf, 0xbe93, 0xbe3d, 0xbdb9, 0xbce1, 0xbe2d, 0xbe7d, 0xbed3, 0xbf0c, 0xbee3, 0xbe25, 0xbe45, 0xbe8f, 0xbe9b, 0xbe97, 0xbe97, 0xbe97, 0xbeaf, 0xbebf, 0xbea3, 0xbe97, 0xbeb7, 0xbecb, 0xbed3, 0xbedb, 0xbed3, 0xbedb, 0xbee3, 0xbee7, 0xbedb, 0xbeeb, 0xbf18, 0xbefb, 0xbedb, 0xbec7, 0xbe8b, 0xbe97, 0xbec3, 0xbee3, 0xbefb, 0xbf04, 0xbea7, 0xbe3d, 0xbe7d, 0xbe97, 0xbe8f, 0xbee3, 0xbf14, 0xbeaf, 0xbe55, 0xbe25, 0xbe15, 0xbe15, 0xbe0d, 0xbe25, 0xbe35, 0xbe4d, 0xbeb7, 0xbf26, 0xbf24, 0xbedb, 0xbe75, 0xbe87, 0xbe65, 0xbe2d, 0xbdf9, 0xbdb9, 0xbd71, 0xbd11, 0xbc41, 0xbce1, 0xbd99, 0xbe15, 0xbe93, 0x000, 0x000, 0x000, 0x000, 0x000, 0xbe7d, 0xbea3, 0xbeaf, 0xbec7, 0xbedb, 0xbee3, 0xbefb, 0xbeff, 0xbf0a, 0xbf0a, 0xbf10, 0xbf14, 0xbf14, 0xbf04, 0xbf12, 0xbf0e, 0xbf06, 0xbf02, 0xbeef, 0xbec3, 0xbe83, 0xbe3d, 0xbe0d, 0xbb81, 0xbc41, 0xbde9, 0xbebf, 0xbf2a, 0xbf1a, 0xbeff, 0xbf16, 0xbf0c, 0xbe6d, 0xbe65, 0xbe8b, 0xbe93, 0xbe9f, 0xbe87, 0xbe9b, 0xbeab, 0xbeb3, 0xbea7, 0xbe97, 0xbeaf, 0xbeb7, 0xbeb7, 0xbebf, 0xbecf, 0xbedb, 0xbecf, 0xbee3, 0xbedf, 0xbed7, 0xbef3, 0xbedb, 0xbec3, 0xbebb, 0xbec7, 0xbefb, 0xbefb, 0xbec3, 0xbebb, 0xbe9f, 0xbdd9, 0xbe35, 0xbe93, 0xbea3, 0xbe75, 0xbee3, 0xbecf, 0xbe8f, 0xbe83, 0xbea3, 0xbe97, 0xbea3, 0xbe9f, 0xbe9f, 0xbea7, 0xbea7, 0xbedb, 0xbf06, 0xbebb, 0xbe9b, 0xbe9f, 0xbea7, 0xbea7, 0xbe9b, 0xbe8f, 0xbe8f, 0xbe97, 0xbe93, 0xbe93, 0xbea3, 0xbeb3, 0xbeaf, 0xbeab, 0x000, 0x000, 0x000, 0x000, 0x000, 0xbf12, 0xbf08, 0xbf02, 0xbf0e, 0xbf1a, 0xbf18, 0xbf10, 0xbf0c, 0xbf06, 0xbf04, 0xbf02, 0xbf08, 0xbf0a, 0xbf0c, 0xbef7, 0xbed7, 0xbe9f, 0xbe93, 0xbe3d, 0xbe05, 0xbdc9, 0xbd51, 0xbe6d, 0xbea7, 0xbebb, 0xbeab, 0xbf0e, 0xbf30, 0xbf16, 0xbebf, 0xbf0c, 0xbf1c, 0xbe93, 0xbe3d, 0xbe83, 0xbe97, 0xbe87, 0xbe8f, 0xbe97, 0xbea3, 0xbeb3, 0xbeab, 0xbe93, 0xbea7, 0xbeb3, 0xbebb, 0xbebf, 0xbec7, 0xbecb, 0xbecf, 0xbedf, 0xbeef, 0xbed3, 0xbea3, 0xbeb3, 0xbec3, 0xbebb, 0xbebf, 0xbecf, 0xbe8f, 0xbe4d, 0xbe25, 0xbe25, 0xbe45, 0xbe8b, 0xbe87, 0xbe5d, 0xbea3, 0xbeab, 0xbecb, 0xbe83, 0xbec3, 0xbebf, 0xbebf, 0xbecb, 0xbec7, 0xbebf, 0xbec7, 0xbed3, 0xbee3, 0xbec3, 0xbe8b, 0xbeaf, 0xbebf, 0xbeb3, 0xbeaf, 0xbeaf, 0xbeab, 0xbeab, 0xbea3, 0xbea3, 0xbeb7, 0xbec7, 0xbec3, 0xbebf, 0xbeb7, 0x000, 0x000, 0x000, 0x000, 0x000, 0xbf1e, 0xbf10, 0xbef3, 0xbedf, 0xbecf, 0xbeeb, 0xbecf, 0xbea7, 0xbe8f, 0xbe83, 0xbe65, 0xbe45, 0xbe1d, 0xbe75, 0xbe6d, 0xbe83, 0xbde9, 0xbdf9, 0xbce1, 0xbe93, 0xbeff, 0xbedb, 0xbf0c, 0xbef3, 0xbed7, 0xbe8f, 0xbeff, 0xbf32, 0xbf10, 0xbe87, 0xbefb, 0xbf20, 0xbea3, 0xbe5d, 0xbe65, 0xbe83, 0xbe7d, 0xbe75, 0xbe83, 0xbe93, 0xbea7, 0xbea3, 0xbe8f, 0xbe9f, 0xbeb3, 0xbeab, 0xbeb7, 0xbec3, 0xbec7, 0xbeb3, 0xbedb, 0xbedb, 0xbec7, 0xbe9b, 0xbeab, 0xbe97, 0xbea7, 0xbe8f, 0xbe25, 0xbe3d, 0xbe45, 0xbe2d, 0xbe25, 0xbe4d, 0xbe8b, 0xbe6d, 0xbe8f, 0xbea7, 0xbe87, 0xbe93, 0xbe8b, 0xbeaf, 0xbebf, 0xbec3, 0xbec7, 0xbec3, 0xbec3, 0xbebf, 0xbec3, 0xbec7, 0xbe9b, 0xbe25, 0xbeaf, 0xbebb, 0xbecb, 0xbec3, 0xbebf, 0xbeb7, 0xbeb3, 0xbea7, 0xbeb3, 0xbecb, 0xbecb, 0xbecb, 0xbec3, 0xbec7, 0x000, 0x000, 0x000, 0x000, 0x000, 0xbec7, 0xbeaf, 0xbe65, 0xbe1d, 0xbdd9, 0xbdb9, 0xbd89, 0x3b81, 0xbce1, 0xbd71, 0xbd11, 0xbd99, 0xbe05, 0xbe83, 0xbe87, 0xbe55, 0xbe2d, 0x3ce1, 0xbd89, 0xbf16, 0xbf18, 0xbf02, 0xbef3, 0xbedf, 0xbebf, 0xbe6d, 0xbef3, 0xbf38, 0xbf08, 0xbdb9, 0xbeb3, 0xbf02, 0xbebb, 0xbe8b, 0xbe5d, 0xbe83, 0xbe7d, 0xbe75, 0xbe75, 0xbe93, 0xbea7, 0xbea7, 0xbe6d, 0xbe75, 0xbe9f, 0xbea3, 0xbea3, 0xbeaf, 0xbebb, 0xbea7, 0xbecf, 0xbec3, 0xbeb3, 0xbebb, 0xbe93, 0xbe83, 0xbea7, 0xbe3d, 0xbd99, 0xbe2d, 0xbe1d, 0xbe35, 0xbe45, 0xbe6d, 0xbe1d, 0xbe1d, 0xbe83, 0xbe5d, 0xbe8f, 0xbe75, 0xbea7, 0xbe9b, 0xbe8b, 0xbe8f, 0xbea7, 0xbea3, 0xbea7, 0xbe9b, 0xbe97, 0xbe9b, 0xbe3d, 0xbd51, 0xbe7d, 0xbe9f, 0xbeb3, 0xbeb7, 0xbebb, 0xbebf, 0xbebb, 0xbeb3, 0xbeab, 0xbeb3, 0xbeb3, 0xbeaf, 0xbeab, 0xbebf, 0x000, 0x000, 0x000, 0x000, 0x000, 0xbde9, 0xbdf9, 0xbd99, 0xbd11, 0xbb81, 0x3c41, 0x3d51, 0x3d71, 0x3d99, 0x3d89, 0x3dd9, 0x3ca1, 0xbeeb, 0xbf12, 0xbf0e, 0xbe65, 0x3d51, 0xbd51, 0xbf10, 0xbf28, 0xbf10, 0xbefb, 0xbec3, 0xbedf, 0xbe9f, 0xbe45, 0xbee7, 0xbf38, 0xbee7, 0xbd99, 0xbe9b, 0xbec7, 0xbea3, 0xbe83, 0xbe65, 0xbe6d, 0xbe7d, 0xbe65, 0xbe6d, 0xbe7d, 0xbe8b, 0xbe83, 0xbe45, 0xbe65, 0xbe8b, 0xbe93, 0xbe7d, 0xbe8f, 0xbea7, 0xbe93, 0xbebb, 0xbeb3, 0xbeb3, 0xbeb3, 0xbe65, 0xbe15, 0xbe35, 0xbdb9, 0xbd71, 0xbe35, 0xbe15, 0xbdf9, 0xbe1d, 0xbdc9, 0xbe15, 0xbe6d, 0xbe15, 0xbe45, 0xbe35, 0xbe6d, 0xbe93, 0xbe8b, 0xbe15, 0xbe25, 0xbe7d, 0xbe83, 0xbe7d, 0xbe75, 0xbe55, 0xbe4d, 0xbe2d, 0xbe25, 0xbe65, 0xbe83, 0xbe8f, 0xbe93, 0xbe9b, 0xbe97, 0xbe5d, 0xbe87, 0xbe7d, 0xbe75, 0xbe7d, 0xbe93, 0xbea3, 0xbeff, 0x000, 0x000, 0x000, 0x000, 0x000, 0x3d11, 0x3d99, 0x3db9, 0x3dc9, 0x3df9, 0x3e05, 0x3e05, 0x3e0d, 0x3e1d, 0x3e1d, 0x3d31, 0xbed3, 0xbf04, 0xbef3, 0xbeb3, 0x3da9, 0xbd71, 0xbf28, 0xbf48, 0xbf32, 0xbf10, 0xbef7, 0xbec7, 0xbf06, 0xbeb3, 0xbe55, 0xbee7, 0xbf32, 0xbee3, 0xbe15, 0xbebb, 0xbebf, 0xbe8f, 0xbe75, 0xbe4d, 0xbe5d, 0xbe65, 0xbe65, 0xbe65, 0xbe55, 0xbe6d, 0xbe65, 0xbe2d, 0xbe35, 0xbe75, 0xbe6d, 0xbe6d, 0xbe8b, 0xbe97, 0xbe93, 0xbea7, 0xbe97, 0xbe9f, 0xbea3, 0xbe35, 0xbe0d, 0xbe0d, 0xbd71, 0xbca1, 0xbda9, 0xbd71, 0xbe2d, 0xbdd9, 0xbd89, 0xbde9, 0xbd71, 0xbe05, 0xbe55, 0xbde9, 0xbe4d, 0xbe45, 0xbe2d, 0xbe2d, 0xbe25, 0xbe25, 0xbe35, 0xbe25, 0xbe15, 0xbe0d, 0xbde9, 0xbe05, 0xbe1d, 0xbe1d, 0xbe1d, 0xbe3d, 0xbe35, 0xbe55, 0xbe55, 0xbe3d, 0xbe35, 0xbe0d, 0xbdc9, 0xbe55, 0xbe97, 0xbf0a, 0xbf32, 0x000, 0x000, 0x000, 0x000, 0x000, 0x3df9, 0x3e05, 0x3e05, 0x3e05, 0x3e0d, 0x3e0d, 0x3e05, 0x3e05, 0x3e15, 0x3c41, 0xbed7, 0xbeeb, 0xbea3, 0xbe6d, 0x3d89, 0xbd11, 0xbf1a, 0xbf4e, 0xbf50, 0xbf42, 0xbf18, 0xbef7, 0xbee3, 0xbf10, 0xbec3, 0xbe93, 0xbedb, 0xbf28, 0xbee3, 0xbe7d, 0xbecb, 0xbeb7, 0xbe9b, 0xbe93, 0xbe55, 0xbe55, 0xbe65, 0xbe55, 0xbe55, 0xbe4d, 0xbe55, 0xbe65, 0xbe45, 0xbe2d, 0xbe5d, 0xbe5d, 0xbe55, 0xbe55, 0xbe6d, 0xbe9f, 0xbeaf, 0xbe87, 0xbe75, 0xbe83, 0xbe25, 0xbd31, 0xbd11, 0xbda9, 0xbd11, 0xbe25, 0xbe55, 0xbe2d, 0xbd99, 0xbdc9, 0x3ca1, 0xbdc9, 0xbe65, 0xbdb9, 0xbe55, 0xbe45, 0xbdc9, 0xbdc9, 0xbde9, 0xbd99, 0xbd71, 0xbd89, 0xbd99, 0xbd89, 0xbd99, 0xbd71, 0xbd71, 0xbd89, 0xbda9, 0xbd51, 0xbd89, 0xbdf9, 0xbe05, 0xbdb9, 0xbdc9, 0xbde9, 0xbe2d, 0xbe93, 0xbefb, 0xbf22, 0xbf3a, 0xbf2c, 0x000, 0x000, 0x000, 0x000, 0x000, 0x3df9, 0x3e0d, 0x3e05, 0x3e0d, 0x3e0d, 0x3e05, 0x3e05, 0x3e05, 0xbd51, 0xbedf, 0xbedb, 0xbe83, 0x3c41, 0x3de9, 0x3db9, 0xbf08, 0xbf4c, 0xbf54, 0xbf54, 0xbf4c, 0xbf1e, 0xbeeb, 0xbed7, 0xbf04, 0xbeb3, 0xbe9b, 0xbebb, 0xbf20, 0xbed7, 0xbea3, 0xbec3, 0xbeaf, 0xbea7, 0xbe9f, 0xbe7d, 0xbe6d, 0xbe6d, 0xbe4d, 0xbe4d, 0xbe55, 0xbe3d, 0xbe5d, 0xbe5d, 0xbe35, 0xbe4d, 0xbe65, 0xbe65, 0xbe6d, 0xbe7d, 0xbe9f, 0xbe97, 0xbe55, 0xbe05, 0xbe0d, 0xbde9, 0xbce1, 0x3c41, 0xbca1, 0xbb81, 0xbe3d, 0xbe0d, 0xbd71, 0x3b81, 0x3d71, 0xbd99, 0xbe2d, 0xbda9, 0xbe05, 0xbe8b, 0xbe5d, 0xbdb9, 0xbd99, 0xbdb9, 0xbd89, 0xbd11, 0xbce1, 0xbd31, 0xbd71, 0xbd51, 0xbd51, 0xbd89, 0xbd31, 0xbd71, 0xbd99, 0xbd71, 0xbd89, 0xbde9, 0xbe75, 0xbeb3, 0xbef3, 0xbf1c, 0xbf32, 0xbf32, 0xbf1c, 0xbef7, 0xbe9b, 0x000, 0x000, 0x000, 0x000, 0x000, 0x3e05, 0x3e05, 0x3e05, 0x3e0d, 0x3e05, 0x3df9, 0x3dd9, 0xbdc9, 0xbec3, 0xbe7d, 0xbd71, 0x3dc9, 0x3e0d, 0x3de9, 0xbe4d, 0xbf48, 0xbf50, 0xbf54, 0xbf56, 0xbf4a, 0xbf24, 0xbee7, 0xbebf, 0xbee3, 0xbecf, 0xbe9f, 0xbeb7, 0xbf0c, 0xbed3, 0xbeb3, 0xbeab, 0xbe9b, 0xbe9f, 0xbe93, 0xbe87, 0xbe65, 0xbe6d, 0xbe6d, 0xbe65, 0xbe5d, 0xbe35, 0xbe3d, 0xbe3d, 0xbe35, 0xbe4d, 0xbe55, 0xbe6d, 0xbe65, 0xbe75, 0xbe83, 0xbe45, 0xbe15, 0xbe25, 0xbe35, 0xbe05, 0xbca1, 0x3c41, 0xbd31, 0xbda9, 0xbda9, 0xbd99, 0xbca1, 0x3d89, 0xbc41, 0xbe1d, 0xbdd9, 0xbce1, 0xbe25, 0xbe7d, 0xbe8b, 0xbe15, 0xbce1, 0x3d11, 0x3d99, 0x3da9, 0x3d99, 0x3d51, 0x3ce1, 0x3d99, 0x3da9, 0xbd51, 0xbe4d, 0xbebb, 0xbee3, 0xbe05, 0xbc41, 0xbecf, 0xbf2c, 0xbf3c, 0xbf34, 0xbf20, 0xbef7, 0xbe8b, 0xbd99, 0x3d11, 0x3d99, 0x000, 0x000, 0x000, 0x000, 0x000, 0x3df9, 0x3df9, 0x3e05, 0x3e0d, 0x3e05, 0x3d99, 0xbdd9, 0xbe25, 0xbce1, 0x3dd9, 0x3e0d, 0x3e05, 0x3df9, 0xbe55, 0xbf34, 0xbf56, 0xbf56, 0xbf54, 0xbf56, 0xbf38, 0xbf18, 0xbeeb, 0xbec7, 0xbeeb, 0xbefb, 0xbebf, 0xbeb3, 0xbef7, 0xbec7, 0xbe9b, 0xbe8f, 0xbe97, 0xbe8b, 0xbe87, 0xbe7d, 0xbe4d, 0xbe55, 0xbe4d, 0xbe4d, 0xbe45, 0xbe4d, 0xbe3d, 0xbe45, 0xbe3d, 0xbe4d, 0xbe87, 0xbe93, 0xbe75, 0xbe8f, 0xbe8b, 0xbe4d, 0xbdd9, 0xbdf9, 0xbe3d, 0xbe0d, 0xbd71, 0xbd51, 0xbdf9, 0xbd99, 0xbd71, 0x3c41, 0x3df9, 0x3d11, 0xbdc9, 0xbdb9, 0xbce1, 0xbd11, 0xbde9, 0xbe2d, 0xbd99, 0x3db9, 0x3e25, 0x3e2d, 0x3e2d, 0x3e2d, 0x3e25, 0x3e35, 0x3e35, 0x3e25, 0x3e25, 0x3dd9, 0xbe2d, 0xbeb7, 0xbedb, 0xbebf, 0xbf02, 0xbf32, 0xbf30, 0xbf16, 0xbedf, 0xbecb, 0xbe25, 0x3e0d, 0x3e1d, 0x3e1d, 0x3e25, 0x000, 0x000, 0x000, 0x000, 0x000, 0x3e05, 0x3e05, 0x3e05, 0x3e05, 0x3de9, 0x3de9, 0x3dd9, 0x3df9, 0x3e0d, 0x3e0d, 0x3e0d, 0x3df9, 0xbce1, 0xbf20, 0xbf52, 0xbf54, 0xbf56, 0xbf54, 0xbf56, 0xbf3c, 0xbf20, 0xbeff, 0xbed3, 0xbeeb, 0xbeeb, 0xbebf, 0xbebf, 0xbedb, 0xbebf, 0xbe8f, 0xbe83, 0xbe8b, 0xbe65, 0xbe65, 0xbe6d, 0xbe4d, 0xbe45, 0xbe4d, 0xbe4d, 0xbe25, 0xbe0d, 0xbe15, 0xbe35, 0xbe3d, 0xbe25, 0xbe45, 0xbe65, 0xbe83, 0xbe7d, 0xbe5d, 0xbe45, 0xbe0d, 0xbe35, 0xbe3d, 0xbe05, 0xbd71, 0xbdd9, 0xbe15, 0xbdf9, 0xbca1, 0x3db9, 0x3ce1, 0xbdf9, 0x3c41, 0xbb81, 0x3d31, 0x3e0d, 0x3e05, 0x3de9, 0x3e15, 0x3e2d, 0x3e2d, 0x3e35, 0x3e2d, 0x3e35, 0x3e35, 0x3e35, 0x3e35, 0x3e2d, 0x3e2d, 0x3e15, 0xbb81, 0xbea3, 0xbf0c, 0xbf2c, 0xbf2c, 0xbef3, 0xbe6d, 0xbebb, 0xbeaf, 0xbee3, 0x3ca1, 0x3e25, 0x3e25, 0x3e1d, 0x3e2d, 0x000, 0x000, 0x000, 0x000, 0x000, 0x3e05, 0x3e05, 0x3e05, 0x3e0d, 0x3e05, 0x3e0d, 0x3e0d, 0x3e05, 0x3e0d, 0x3e0d, 0x3e15, 0x3df9, 0xbea3, 0xbf4e, 0xbf52, 0xbf54, 0xbf54, 0xbf54, 0xbf56, 0xbf4e, 0xbf28, 0xbf14, 0xbeeb, 0xbee3, 0xbed3, 0xbed3, 0xbed3, 0xbeab, 0xbe97, 0xbe7d, 0xbe65, 0xbe6d, 0xbe55, 0xbe45, 0xbe55, 0xbe3d, 0xbe45, 0xbe45, 0xbe45, 0xbe3d, 0xbe1d, 0xbe05, 0xbe15, 0xbe25, 0xbe15, 0xbe45, 0xbe6d, 0xbe75, 0xbe4d, 0xbe45, 0xbe55, 0xbe15, 0xbdd9, 0xbe1d, 0xbe35, 0xbda9, 0xbd51, 0xbd89, 0xbd89, 0x3dc9, 0x3de9, 0xbce1, 0x3b81, 0x3db9, 0x3d31, 0x3e15, 0x3e25, 0x3e2d, 0x3e35, 0x3e2d, 0x3e2d, 0x3e2d, 0x3e35, 0x3e35, 0x3e2d, 0x3e2d, 0x3e35, 0x3e2d, 0x3de9, 0xbd51, 0xbeaf, 0xbf10, 0xbf2e, 0xbf2e, 0xbf06, 0xbe2d, 0x3da9, 0xbd71, 0xbee3, 0xbef7, 0xbebb, 0x3de9, 0x3e0d, 0x3e1d, 0x3e2d, 0x3e2d, 0x000, 0x000, 0x000, 0x000, 0x000, 0x3e05, 0x3e05, 0x3e05, 0x3e0d, 0x3e05, 0x3e05, 0x3e0d, 0x3e0d, 0x3e0d, 0x3e0d, 0x3e0d, 0x3d51, 0xbf1a, 0xbf56, 0xbf58, 0xbf56, 0xbf54, 0xbf54, 0xbf58, 0xbf54, 0xbf3a, 0xbf1a, 0xbf1c, 0xbeff, 0xbf04, 0xbee3, 0xbebb, 0xbeb3, 0xbe7d, 0xbe45, 0xbe55, 0xbe75, 0xbe65, 0xbe3d, 0xbe4d, 0xbe3d, 0xbe45, 0xbe5d, 0xbe35, 0xbe45, 0xbe1d, 0xbde9, 0xbde9, 0xbe2d, 0xbe45, 0xbe55, 0xbe65, 0xbe5d, 0xbe15, 0xbe15, 0xbe55, 0xbe55, 0xbe25, 0xbdc9, 0xbe1d, 0xbdd9, 0xbc41, 0xbd31, 0xbda9, 0xbce1, 0x3ca1, 0x3ca1, 0x3d51, 0x3c41, 0x3e0d, 0x3e1d, 0x3e25, 0x3e2d, 0x3e2d, 0x3e25, 0x3e35, 0x3e2d, 0x3e2d, 0x3e25, 0x3e2d, 0x3e1d, 0x3d99, 0xbde9, 0xbecb, 0xbf28, 0xbf38, 0xbf30, 0xbf10, 0xbe6d, 0x3d51, 0x3e25, 0x3dd9, 0xbe1d, 0xbeaf, 0xbeeb, 0xbdb9, 0x3e15, 0x3e15, 0x3e25, 0x3e25, 0x3e25, 0x000, 0x000, 0x000, 0x000, 0x000, 0x3e05, 0x3df9, 0x3e05, 0x3e05, 0x3e05, 0x3e0d, 0x3e0d, 0x3e0d, 0x3e05, 0x3e0d, 0x3df9, 0xbdd9, 0xbf38, 0xbf52, 0xbf56, 0xbf56, 0xbf54, 0xbf56, 0xbf5a, 0xbf56, 0xbf4e, 0xbf28, 0xbf28, 0xbf12, 0xbf0a, 0xbedb, 0xbebb, 0xbe8f, 0xbe25, 0xbe1d, 0xbe35, 0xbe65, 0xbe6d, 0xbe4d, 0xbe45, 0xbe15, 0xbe35, 0xbe55, 0xbe55, 0xbe3d, 0xbe45, 0xbe2d, 0xbe15, 0xbe35, 0xbe2d, 0xbe35, 0xbe3d, 0xbe75, 0xbe2d, 0xbe0d, 0xbe5d, 0xbe55, 0xbe25, 0xbd99, 0xbdc9, 0xbce1, 0x3d11, 0xbca1, 0xbd11, 0x3ca1, 0x3dc9, 0x3dc9, 0x3da9, 0x3e2d, 0x3e2d, 0x3e1d, 0x3e2d, 0x3e2d, 0x3e1d, 0x3e25, 0x3e35, 0x3e2d, 0x3e2d, 0x3e0d, 0xbb81, 0xbe83, 0xbef7, 0xbf20, 0xbf26, 0xbf18, 0xbeff, 0xbeb7, 0xbd11, 0x3e25, 0x3e2d, 0x3e25, 0xbd11, 0xbeb3, 0xbee7, 0xbe93, 0x3e0d, 0x3e1d, 0x3e25, 0x3e25, 0x3e25, 0x3e25, 0x000, 0x000, 0x000, 0x000, 0x000, 0x3e05, 0x3e05, 0x3e05, 0x3df9, 0x3df9, 0x3e0d, 0x3e0d, 0x3e05, 0x3e05, 0x3e05, 0x3d89, 0xbf12, 0xbf4e, 0xbf52, 0xbf54, 0xbf56, 0xbf54, 0xbf54, 0xbf58, 0xbf58, 0xbf56, 0xbf3a, 0xbf1e, 0xbf0c, 0xbefb, 0xbef3, 0xbeb3, 0xbe2d, 0xbdc9, 0xbde9, 0xbe3d, 0xbe65, 0xbe5d, 0xbe4d, 0xbe5d, 0xbe2d, 0xbe35, 0xbe35, 0xbe5d, 0xbe55, 0xbe65, 0xbe35, 0xbe05, 0xbe1d, 0xbe65, 0xbe5d, 0xbe4d, 0xbe45, 0xbdf9, 0xbde9, 0xbe3d, 0xbe5d, 0xbe45, 0xbd99, 0xbdf9, 0xbe15, 0x3b81, 0x3ca1, 0x3d89, 0x3d89, 0x3ca1, 0x3e05, 0x3e3d, 0x3e2d, 0x3e2d, 0x3e25, 0x3e25, 0x3e35, 0x3e25, 0x3e35, 0x3e2d, 0x3d89, 0xbe05, 0xbecf, 0xbf16, 0xbf1c, 0xbeef, 0xbe8b, 0xbdb9, 0x3d11, 0x3d71, 0x3dd9, 0x3e2d, 0x3e2d, 0x3e1d, 0x3e1d, 0xbe0d, 0xbe9f, 0xbec3, 0xbd11, 0x3e35, 0x3e25, 0x3e25, 0x3e15, 0x3e15, 0x3e1d, 0x000, 0x000, 0x000, 0x000, 0x000, 0x3e05, 0x3e05, 0x3e05, 0x3df9, 0x3e05, 0x3e05, 0x3e05, 0x3df9, 0x3df9, 0x3e05, 0xbd51, 0xbf36, 0xbf52, 0xbf54, 0xbf52, 0xbf52, 0xbf50, 0xbf54, 0xbf52, 0xbf56, 0xbf50, 0xbf44, 0xbf22, 0xbf14, 0xbee3, 0xbec3, 0xbed3, 0xbe65, 0xbd99, 0xbe0d, 0xbe35, 0xbe2d, 0xbe25, 0xbe4d, 0xbe6d, 0xbe4d, 0xbe0d, 0xbe05, 0xbe35, 0xbe3d, 0xbe55, 0xbe2d, 0xbdd9, 0xbe1d, 0xbe35, 0xbe15, 0xbe2d, 0xbe15, 0xbdf9, 0xbde9, 0xbdd9, 0xbe05, 0xbe05, 0xbd89, 0x3c41, 0xbce1, 0x3d89, 0x3e35, 0x3d71, 0x3b81, 0x3de9, 0x3e35, 0x3e1d, 0x3e2d, 0x3e35, 0x3e25, 0x3e2d, 0x3e2d, 0x3d99, 0xbd99, 0xbea3, 0xbf08, 0xbf18, 0xbf04, 0xbe93, 0xbd71, 0x3dd9, 0x3e25, 0x3e2d, 0x3e25, 0x3e25, 0x3e25, 0x3e3d, 0x3e35, 0x3e35, 0x3dd9, 0xbeaf, 0xbecf, 0xbe5d, 0x3df9, 0x3e25, 0x3e25, 0x3e25, 0x3e25, 0x3e15, 0x3e1d, 0x000, 0x000, 0x000, 0x000, 0x000, 0x3e05, 0x3e05, 0x3df9, 0x3e05, 0x3e05, 0x3e05, 0x3e05, 0x3e05, 0x3df9, 0x3e05, 0xbe2d, 0xbf42, 0xbf54, 0xbf54, 0xbf52, 0xbf52, 0xbf56, 0xbf52, 0xbf3c, 0xbf3a, 0xbf44, 0xbf18, 0xbf20, 0xbf10, 0xbf10, 0xbebf, 0xbeab, 0xbec7, 0xbe9b, 0xbe75, 0xbe35, 0xbe0d, 0xbe05, 0xbe35, 0xbe6d, 0xbe4d, 0xbe2d, 0xbe1d, 0xbe25, 0xbe05, 0xbe05, 0xbe0d, 0xbdc9, 0xbe05, 0xbe15, 0xbdf9, 0xbe05, 0xbe15, 0xbe35, 0xbe0d, 0xbd31, 0xbb81, 0xbd31, 0xbd11, 0x3dd9, 0x3e0d, 0x3d31, 0x3d31, 0x3b81, 0x3db9, 0x3e2d, 0x3e2d, 0x3e35, 0x3e2d, 0x3e2d, 0x3dc9, 0xbd11, 0xbe8b, 0xbf02, 0xbf20, 0xbf08, 0xbeab, 0xbdb9, 0x3da9, 0x3e1d, 0x3e1d, 0x3e1d, 0x3e25, 0x3e25, 0x3e25, 0x3e25, 0x3e25, 0x3e2d, 0x3e2d, 0x3e25, 0xbe1d, 0xbf06, 0xbedb, 0xbe35, 0x3e1d, 0x3e25, 0x3e2d, 0x3e25, 0x3e25, 0x3e25, 0x3e25, 0x000, 0x000, 0x000, 0x000, 0x000, 0x3e05, 0x3e05, 0x3df9, 0x3e05, 0x3e05, 0x3e05, 0x3e05, 0x3e05, 0x3e05, 0x3e05, 0xbe83, 0xbf4c, 0xbf54, 0xbf56, 0xbf54, 0xbf54, 0xbf56, 0xbf48, 0xbf06, 0xbf22, 0xbf4c, 0xbf48, 0xbf36, 0xbf1a, 0xbf0c, 0xbefb, 0xbe8f, 0xbe93, 0xbea3, 0xbe9b, 0xbe75, 0xbe5d, 0xbe87, 0xbe87, 0xbe8b, 0xbe8b, 0xbe87, 0xbe7d, 0xbe5d, 0xbe4d, 0xbe25, 0xbe05, 0xbe05, 0xbe0d, 0xbe3d, 0xbe1d, 0xbe0d, 0xbdf9, 0xbe25, 0xbe05, 0xbd89, 0x3ce1, 0x3d51, 0x3da9, 0x3de9, 0x3d71, 0xbd89, 0xbca1, 0x3da9, 0x3e25, 0x3e25, 0x3e0d, 0x3d71, 0xbda9, 0xbe9f, 0xbf02, 0xbf18, 0xbf0c, 0xbebb, 0xbe05, 0x3d89, 0x3e15, 0x3e35, 0x3e25, 0x3e2d, 0x3e25, 0x3e25, 0x3e25, 0x3e1d, 0x3e1d, 0x3e1d, 0x3e25, 0x3e35, 0x3e35, 0x3dc9, 0xbec7, 0xbf0e, 0xbf0a, 0xbd71, 0x3e25, 0x3e25, 0x3e25, 0x3e2d, 0x3e25, 0x3e25, 0x3e25, 0x000, 0x000, 0x000, 0x000, 0x000, 0x3e05, 0x3e05, 0x3df9, 0x3e05, 0x3e05, 0x3e05, 0x3e05, 0x3e05, 0x3e05, 0x3e0d, 0xbe4d, 0xbf48, 0xbf52, 0xbf52, 0xbf56, 0xbf54, 0xbf58, 0xbf44, 0xbef3, 0xbf32, 0xbf4e, 0xbf54, 0xbf54, 0xbf30, 0xbf1a, 0xbf18, 0xbee3, 0xbe87, 0xbe93, 0xbe8b, 0xbe8f, 0xbe97, 0xbe9b, 0xbea3, 0xbe97, 0xbea3, 0xbe9f, 0xbe8b, 0xbe65, 0xbe5d, 0xbe4d, 0xbdf9, 0xbe0d, 0xbe1d, 0xbe35, 0xbe3d, 0xbe2d, 0xbe0d, 0xbde9, 0xbd11, 0x3d11, 0x3d51, 0x3d51, 0x3d11, 0xbd31, 0xbe0d, 0xbda9, 0x3db9, 0x3db9, 0xbc41, 0xbe3d, 0xbecf, 0xbf10, 0xbf1a, 0xbf0c, 0xbebb, 0xbdf9, 0x3d71, 0x3e0d, 0x3e2d, 0x3e2d, 0x3e1d, 0x3e25, 0x3e2d, 0x3e2d, 0x3e2d, 0x3e25, 0x3e25, 0x3e25, 0x3e25, 0x3e1d, 0x3e25, 0x3e35, 0x3e2d, 0xbda9, 0xbf08, 0xbf0e, 0xbed7, 0x3db9, 0x3e25, 0x3e25, 0x3e25, 0x3e25, 0x3e1d, 0x3e1d, 0x3e1d, 0x000, 0x000, 0x000, 0x000, 0x000, 0x3e05, 0x3df9, 0x3dd9, 0x3df9, 0x3e05, 0x3e05, 0x3df9, 0x3e05, 0x3e0d, 0x3e0d, 0xbce1, 0xbf32, 0xbf52, 0xbf54, 0xbf54, 0xbf52, 0xbf56, 0xbf48, 0xbf0e, 0xbf44, 0xbf50, 0xbf58, 0xbf58, 0xbf3e, 0xbf32, 0xbf1e, 0xbf08, 0xbeeb, 0xbeab, 0xbe83, 0xbe7d, 0xbe97, 0xbe93, 0xbe9f, 0xbea3, 0xbea7, 0xbea3, 0xbe8f, 0xbe7d, 0xbe6d, 0xbe5d, 0xbe83, 0xbe75, 0xbe2d, 0xbdf9, 0xbdf9, 0xbdb9, 0xbd71, 0xbd51, 0xbd71, 0xbd31, 0xbc41, 0xbd31, 0xbe1d, 0xbe35, 0xbe25, 0xbe4d, 0xbea7, 0xbef7, 0xbf1a, 0xbf20, 0xbf02, 0xbea3, 0xbe15, 0x3d11, 0x3e0d, 0x3e2d, 0x3e35, 0x3e2d, 0x3e25, 0x3e25, 0x3e25, 0x3e1d, 0x3e25, 0x3e25, 0x3e2d, 0x3e2d, 0x3e25, 0x3e25, 0x3e35, 0x3e2d, 0x3e25, 0x3e25, 0x3e25, 0xbe5d, 0xbeff, 0xbf08, 0xbe1d, 0x3e1d, 0x3e1d, 0x3e25, 0x3e25, 0x3e2d, 0x3e25, 0x3e2d, 0x3e25, 0x000, 0x000, 0x000, 0x000, 0x000, 0x3df9, 0x3df9, 0x3de9, 0x3de9, 0x3df9, 0x3e05, 0x3e05, 0x3e05, 0x3e0d, 0x3e05, 0x3dc9, 0xbeff, 0xbf50, 0xbf56, 0xbf54, 0xbf52, 0xbf54, 0xbf4e, 0xbf1c, 0xbf46, 0xbf4a, 0xbf48, 0xbf58, 0xbf46, 0xbf32, 0xbf38, 0xbf1a, 0xbef3, 0xbef3, 0xbec3, 0xbe87, 0xbe93, 0xbe8f, 0xbe8f, 0xbea7, 0xbeab, 0xbeab, 0xbea3, 0xbe97, 0xbe75, 0xbe45, 0xbe75, 0xbe83, 0xbe6d, 0xbe6d, 0xbe5d, 0xbe45, 0xbe55, 0xbe2d, 0xbe1d, 0xbe15, 0xbe15, 0xbe15, 0xbe35, 0xbed7, 0xbf22, 0xbf2a, 0xbf1e, 0xbeff, 0xbe9b, 0xbdb9, 0x3d99, 0x3e1d, 0x3e25, 0x3e15, 0x3e1d, 0x3e25, 0x3e25, 0x3e1d, 0x3e2d, 0x3e2d, 0x3e25, 0x3e25, 0x3e25, 0x3e25, 0x3e25, 0x3e25, 0x3e2d, 0x3e25, 0x3e35, 0x3e2d, 0x3e1d, 0x3e25, 0x3df9, 0xbea3, 0xbee3, 0xbed7, 0x3d71, 0x3e1d, 0x3e1d, 0x3e1d, 0x3e1d, 0x3e25, 0x3e1d, 0x3e15, 0x3e25, 0x000, 0x000, 0x000, 0x000, 0x000, 0x3df9, 0x3df9, 0x3df9, 0x3df9, 0x3e05, 0x3df9, 0x3df9, 0x3df9, 0x3e05, 0x3df9, 0x3df9, 0xbe2d, 0xbf40, 0xbf52, 0xbf56, 0xbf52, 0xbf54, 0xbf54, 0xbf52, 0xbf52, 0xbf58, 0xbf54, 0xbf5a, 0xbf58, 0xbf46, 0xbf48, 0xbf32, 0xbf1e, 0xbebf, 0xbee3, 0xbeeb, 0xbeaf, 0xbe93, 0xbe97, 0xbea7, 0xbeab, 0xbea7, 0xbea7, 0xbebb, 0xbebb, 0xbeb3, 0xbe9f, 0xbe9f, 0xbe9b, 0xbe9b, 0xbeaf, 0xbe9f, 0xbe83, 0xbe3d, 0xbdd9, 0xbdd9, 0xbe1d, 0xbe6d, 0xbed7, 0xbf12, 0xbeeb, 0xbe9b, 0xbd99, 0x3d99, 0x3e0d, 0x3e25, 0x3e25, 0x3e15, 0x3e1d, 0x3e1d, 0x3e1d, 0x3e25, 0x3e25, 0x3e25, 0x3e35, 0x3e2d, 0x3e1d, 0x3e25, 0x3e25, 0x3e1d, 0x3e25, 0x3e25, 0x3e25, 0x3e25, 0x3e1d, 0x3e2d, 0x3e25, 0x3e1d, 0x3d99, 0xbe9b, 0xbebb, 0xbe45, 0x3e05, 0x3e15, 0x3e1d, 0x3e1d, 0x3e1d, 0x3e1d, 0x3e1d, 0x3e15, 0x3e25, 0x000, 0x000, 0x000, 0x000, 0x000, 0x3df9, 0x3df9, 0x3e05, 0x3df9, 0x3df9, 0x3e05, 0x3df9, 0x3df9, 0x3df9, 0x3df9, 0x3e05, 0x3db9, 0xbf02, 0xbf4c, 0xbf50, 0xbf52, 0xbf52, 0xbf4e, 0xbf4c, 0xbf32, 0xbf40, 0xbf5c, 0xbf5e, 0xbf5c, 0xbf54, 0xbf4e, 0xbf3a, 0xbf26, 0xbf10, 0xbf20, 0xbf1a, 0xbf02, 0xbec7, 0xbeab, 0xbea3, 0xbea7, 0xbe9b, 0xbe9b, 0xbea3, 0xbea7, 0xbea7, 0xbe8b, 0xbe87, 0xbe97, 0xbe8f, 0xbea3, 0xbe7d, 0xbe2d, 0xbda9, 0xbdf9, 0xbe45, 0xbeab, 0xbe97, 0xbe25, 0xbd71, 0x3d89, 0x3e0d, 0x3e15, 0x3e15, 0x3e25, 0x3e25, 0x3e1d, 0x3e1d, 0x3e1d, 0x3e25, 0x3e25, 0x3e25, 0x3e25, 0x3e25, 0x3e25, 0x3e25, 0x3e25, 0x3e1d, 0x3e25, 0x3e25, 0x3e2d, 0x3e25, 0x3e25, 0x3e1d, 0x3e1d, 0x3e1d, 0x3e25, 0x3e1d, 0x3ce1, 0xbe5d, 0xbe65, 0x3d89, 0x3e1d, 0x3e15, 0x3e1d, 0x3e1d, 0x3e1d, 0x3e15, 0x3e1d, 0x3e15, 0x3e1d, 0x000, 0x000, 0x000, 0x000, 0x000, 0x3df9, 0x3df9, 0x3df9, 0x3df9, 0x3e05, 0x3df9, 0x3df9, 0x3e05, 0x3df9, 0x3df9, 0x3df9, 0x3e0d, 0xbd31, 0xbf20, 0xbf4a, 0xbf4c, 0xbf4e, 0xbf48, 0xbf42, 0xbf10, 0xbf10, 0xbf58, 0xbf5c, 0xbf5c, 0xbf5a, 0xbf50, 0xbf4a, 0xbf3e, 0xbf22, 0xbf20, 0xbf1a, 0xbf0a, 0xbf12, 0xbeeb, 0xbed7, 0xbec7, 0xbea3, 0xbe9b, 0xbe9b, 0xbeaf, 0xbeaf, 0xbe8f, 0xbe87, 0xbe7d, 0xbe87, 0xbe97, 0xbe35, 0xbdb9, 0xbd99, 0xbd71, 0xbb81, 0x3db9, 0x3e15, 0x3e25, 0x3e1d, 0x3e1d, 0x3e1d, 0x3e1d, 0x3e1d, 0x3e25, 0x3e25, 0x3e1d, 0x3e1d, 0x3e25, 0x3e25, 0x3e15, 0x3e15, 0x3e1d, 0x3e25, 0x3e25, 0x3e1d, 0x3e25, 0x3e25, 0x3e25, 0x3e1d, 0x3e1d, 0x3e25, 0x3e25, 0x3e1d, 0x3e1d, 0x3e1d, 0x3e1d, 0x3e1d, 0xbd11, 0xbe1d, 0x3d51, 0x3e1d, 0x3e1d, 0x3e1d, 0x3e25, 0x3e1d, 0x3e1d, 0x3e1d, 0x3e1d, 0x3e15, 0x3e25, 0x000, 0x000, 0x000, 0x000, 0x000, 0x3df9, 0x3df9, 0x3df9, 0x3df9, 0x3e05, 0x3e05, 0x3e05, 0x3e05, 0x3df9, 0x3df9, 0x3e05, 0x3df9, 0x3df9, 0xbe05, 0xbf2e, 0xbf4c, 0xbf4a, 0xbf46, 0xbf42, 0xbf22, 0xbf0e, 0xbf4c, 0xbf5a, 0xbf5a, 0xbf58, 0xbf50, 0xbf52, 0xbf42, 0xbf24, 0xbf20, 0xbf20, 0xbf22, 0xbf0a, 0xbf06, 0xbea7, 0xbeb3, 0xbebb, 0xbeb7, 0xbeab, 0xbebf, 0xbebf, 0xbeab, 0xbe83, 0xbe4d, 0xbdf9, 0xbd89, 0x3d51, 0x3df9, 0x3e15, 0x3e1d, 0x3e15, 0x3e25, 0x3e2d, 0x3e2d, 0x3e25, 0x3e25, 0x3e15, 0x3e1d, 0x3e1d, 0x3e1d, 0x3e25, 0x3e25, 0x3e25, 0x3e25, 0x3e25, 0x3e25, 0x3e15, 0x3e1d, 0x3e25, 0x3e1d, 0x3e15, 0x3e25, 0x3e2d, 0x3e25, 0x3e25, 0x3e25, 0x3e25, 0x3e25, 0x3e25, 0x3e25, 0x3e25, 0x3e1d, 0x3e15, 0xbd11, 0x3d31, 0x3e25, 0x3e2d, 0x3e35, 0x3e25, 0x3e25, 0x3e25, 0x3e1d, 0x3e15, 0x3e25, 0x3e1d, 0x3e1d, 0x000, 0x000, 0x000, 0x000, 0x000, 0x3df9, 0x3df9, 0x3df9, 0x3df9, 0x3df9, 0x3e05, 0x3e05, 0x3df9, 0x3df9, 0x3df9, 0x3e05, 0x3df9, 0x3e05, 0x3df9, 0xbe35, 0xbf2c, 0xbf42, 0xbf42, 0xbf44, 0xbf42, 0xbf44, 0xbf52, 0xbf5a, 0xbf58, 0xbf4c, 0xbf32, 0xbf32, 0xbf3c, 0xbf26, 0xbf1a, 0xbf08, 0xbe8b, 0xbea7, 0xbee7, 0xbea3, 0xbe3d, 0xbe05, 0xbe25, 0xbe3d, 0xbe6d, 0xbe7d, 0xbe5d, 0xbde9, 0x3d89, 0x3de9, 0x3e0d, 0x3e1d, 0x3e15, 0x3e25, 0x3e25, 0x3e1d, 0x3e25, 0x3e25, 0x3e25, 0x3e15, 0x3e25, 0x3e15, 0x3e1d, 0x3e1d, 0x3e1d, 0x3e25, 0x3e25, 0x3e1d, 0x3e1d, 0x3e25, 0x3e25, 0x3e25, 0x3e1d, 0x3e1d, 0x3e2d, 0x3e25, 0x3e25, 0x3e2d, 0x3e25, 0x3e2d, 0x3e1d, 0x3e25, 0x3e1d, 0x3e1d, 0x3e25, 0x3e25, 0x3e1d, 0x3e1d, 0x3df9, 0x3e2d, 0x3e25, 0x3e25, 0x3e2d, 0x3e1d, 0x3e25, 0x3e1d, 0x3e1d, 0x3e15, 0x3e25, 0x3e1d, 0x3e25, 0x000, 0x000, 0x000, 0x000, 0x000, 0x000, 0x000, 0x000, 0x000, 0x000, 0x000, 0x000, 0x000, 0x000, 0x000, 0x000, 0x000, 0x000, 0x000, 0x000, 0x000, 0x000, 0x000, 0x000, 0x000, 0x000, 0x000, 0x000, 0x000, 0x000, 0x000, 0x000, 0x000, 0x000, 0x000, 0x000, 0x000, 0x000, 0x000, 0x000, 0x000, 0x000, 0x000, 0x000, 0x000, 0x000, 0x000, 0x000, 0x000, 0x000, 0x000, 0x000, 0x000, 0x000, 0x000, 0x000, 0x000, 0x000, 0x000, 0x000, 0x000, 0x000, 0x000, 0x000, 0x000, 0x000, 0x000, 0x000, 0x000, 0x000, 0x000, 0x000, 0x000, 0x000, 0x000, 0x000, 0x000, 0x000, 0x000, 0x000, 0x000, 0x000, 0x000, 0x000, 0x000, 0x000, 0x000, 0x000, 0x000, 0x000, 0x000, 0x000, 0x000, 0x000, 0x000, 0x000, 0x000, 0x000, 0x000, 0x000, 0x000, 0x000, 0x000, 0x000, 0x000, 0x000, 0x000, 0x000, 0x000, 0x000, 0x000, 0x000, 0x000, 0x000, 0x000, 0x000, 0x000, 0x000, 0x000, 0x000, 0x000, 0x000, 0x000, 0x000, 0x000, 0x000, 0x000, 0x000, 0x000, 0x000, 0x000, 0x000, 0x000, 0x000, 0x000, 0x000, 0x000, 0x000, 0x000, 0x000, 0x000, 0x000, 0x000, 0x000, 0x000, 0x000, 0x000, 0x000, 0x000, 0x000, 0x000, 0x000, 0x000, 0x000, 0x000, 0x000, 0x000, 0x000, 0x000, 0x000, 0x000, 0x000, 0x000, 0x000, 0x000, 0x000, 0x000, 0x000, 0x000, 0x000, 0x000, 0x000, 0x000, 0x000, 0x000, 0x000, 0x000, 0x000, 0x000, 0x000, 0x000, 0x000, 0x000, 0x000, 0x000, 0x000, 0x000, 0x000, 0x000, 0x000, 0x000, 0x000, 0x000, 0x000, 0x000, 0x000, 0x000, 0x000, 0x000, 0x000, 0x000, 0x000, 0x000, 0x000, 0x000, 0x000, 0x000, 0x000, 0x000, 0x000, 0x000, 0x000, 0x000, 0x000, 0x000, 0x000, 0x000, 0x000, 0x000, 0x000, 0x000, 0x000, 0x000, 0x000, 0x000, 0x000, 0x000, 0x000, 0x000, 0x000, 0x000, 0x000, 0x000, 0x000, 0x000, 0x000, 0x000, 0x000, 0x000, 0x000, 0x000, 0x000, 0x000, 0x000, 0x000, 0x000, 0x000, 0x000, 0x000, 0x000, 0x000, 0x000, 0x000, 0x000, 0x000, 0x000, 0x000, 0x000, 0x000, 0x000, 0x000, 0x000, 0x000, 0x000, 0x000, 0x000, 0x000, 0x000, 0x000, 0x000, 0x000, 0x000, 0x000, 0x000, 0x000, 0x000, 0x000, 0x000, 0x000, 0x000, 0x000, 0x000, 0x000, 0x000, 0x000, 0x000, 0x000, 0x000, 0x000, 0x000, 0x000, 0x000, 0x000, 0x000, 0x000, 0x000, 0x000, 0x000, 0x000, 0x000, 0x000, 0x000, 0x000, 0x000, 0x000, 0x000, 0x000, 0x000, 0x000, 0x000, 0x000, 0x000, 0x000, 0x000, 0x000, 0x000, 0x000, 0x000, 0x000, 0x000, 0x000, 0x000, 0x000, 0x000, 0x000, 0x000, 0x000, 0x000, 0x000, 0x000, 0x000, 0x000, 0x000, 0x000, 0x000, 0x000, 0x000, 0x000, 0x000, 0x000, 0x000, 0x000, 0x000, 0x000, 0x000, 0x000, 0x000, 0x000, 0x000, 0x000, 0x000, 0x000, 0x000, 0x000, 0x000, 0x000, 0x000, 0x000, 0x000, 0x000, 0x000, 0x000, 0x000, 0x000, 0x000, 0x000, 0x000, 0x000, 0x000, 0x000, 0x000, 0x000, 0x000, 0x000, 0x000, 0x000, 0x000, 0x000, 0x000, 0x000, 0x000, 0x000, 0x000, 0x000, 0x000, 0x000, 0x000, 0x000, 0x000, 0x000, 0x000, 0x000, 0x000, 0x000, 0x000, 0x000, 0x000, 0x000, 0x000, 0x000, 0x000, 0x000, 0x000, 0x000, 0x000, 0x000, 0x000, 0x000
};
const unsigned int app_input_host_stencil_data_0_size =  10201;
const uint16_t app_input_host_stencil_data_1[] __attribute__((section(".app_input_host_stencil_data_1"))) = { 
